WIDTH=16;
DEPTH=785;

ADDRESS_RADIX=HEX;
DATA_RADIX=HEX;

CONTENT BEGIN
  000000  :  054E;
  000001  :  034B;
  000002  :  02C0;
  000003  :  0335;
  000004  :  FCCB;
  000005  :  FB9E;
  000006  :  FB9A;
  000007  :  FF3D;
  000008  :  050E;
  000009  :  0044;
  00000A  :  FB08;
  00000B  :  FD53;
  00000C  :  FE51;
  00000D  :  03BF;
  00000E  :  00F8;
  00000F  :  FCDA;
  000010  :  FFA2;
  000011  :  FFBA;
  000012  :  0442;
  000013  :  03BD;
  000014  :  0125;
  000015  :  04B4;
  000016  :  01A6;
  000017  :  FCD7;
  000018  :  038D;
  000019  :  02FA;
  00001A  :  00D0;
  00001B  :  0287;
  00001C  :  014E;
  00001D  :  01CB;
  00001E  :  02DC;
  00001F  :  FDCC;
  000020  :  03B7;
  000021  :  FAC2;
  000022  :  FBFB;
  000023  :  FBE4;
  000024  :  0304;
  000025  :  FAD5;
  000026  :  02B9;
  000027  :  FD2D;
  000028  :  FE93;
  000029  :  0350;
  00002A  :  05C8;
  00002B  :  FC31;
  00002C  :  0324;
  00002D  :  FD45;
  00002E  :  FCFF;
  00002F  :  FCE0;
  000030  :  FE33;
  000031  :  03CE;
  000032  :  017A;
  000033  :  0268;
  000034  :  0072;
  000035  :  0113;
  000036  :  FDC2;
  000037  :  03B2;
  000038  :  0519;
  000039  :  0338;
  00003A  :  0480;
  00003B  :  FCA1;
  00003C  :  FCB4;
  00003D  :  05D1;
  00003E  :  FC3A;
  00003F  :  00B7;
  000040  :  FC52;
  000041  :  05FF;
  000042  :  FCA7;
  000043  :  FCAA;
  000044  :  FB33;
  000045  :  0457;
  000046  :  0122;
  000047  :  000F;
  000048  :  02DA;
  000049  :  FBFA;
  00004A  :  FAEF;
  00004B  :  0141;
  00004C  :  014D;
  00004D  :  04C9;
  00004E  :  0175;
  00004F  :  0340;
  000050  :  FF2E;
  000051  :  0402;
  000052  :  FB3A;
  000053  :  0229;
  000054  :  FCE2;
  000055  :  FA8E;
  000056  :  FB9E;
  000057  :  045D;
  000058  :  FF7E;
  000059  :  006C;
  00005A  :  FBD3;
  00005B  :  FD3D;
  00005C  :  02A0;
  00005D  :  0498;
  00005E  :  019F;
  00005F  :  02F6;
  000060  :  00F2;
  000061  :  FEC4;
  000062  :  0583;
  000063  :  003A;
  000064  :  00AF;
  000065  :  FC4D;
  000066  :  FCC1;
  000067  :  0229;
  000068  :  FAE1;
  000069  :  FCDA;
  00006A  :  FDD0;
  00006B  :  02E4;
  00006C  :  FA3D;
  00006D  :  FDFD;
  00006E  :  FCF0;
  00006F  :  0375;
  000070  :  FF8F;
  000071  :  FE08;
  000072  :  03DC;
  000073  :  044A;
  000074  :  FB6C;
  000075  :  FF0F;
  000076  :  FEAA;
  000077  :  03CD;
  000078  :  0012;
  000079  :  052F;
  00007A  :  FB3B;
  00007B  :  0561;
  00007C  :  FDDC;
  00007D  :  0414;
  00007E  :  0040;
  00007F  :  0562;
  000080  :  FF8D;
  000081  :  FAC3;
  000082  :  030A;
  000083  :  FD25;
  000084  :  01A0;
  000085  :  0010;
  000086  :  01DE;
  000087  :  051B;
  000088  :  0474;
  000089  :  FE17;
  00008A  :  00E3;
  00008B  :  0101;
  00008C  :  FFBD;
  00008D  :  0137;
  00008E  :  0121;
  00008F  :  019F;
  000090  :  FCC0;
  000091  :  020C;
  000092  :  0411;
  000093  :  FA86;
  000094  :  0190;
  000095  :  065A;
  000096  :  04FD;
  000097  :  FB5C;
  000098  :  002F;
  000099  :  FEEB;
  00009A  :  024D;
  00009B  :  FDD6;
  00009C  :  0445;
  00009D  :  0414;
  00009E  :  0223;
  00009F  :  0492;
  0000A0  :  FCEB;
  0000A1  :  FD42;
  0000A2  :  FD54;
  0000A3  :  FF42;
  0000A4  :  061D;
  0000A5  :  00AF;
  0000A6  :  0143;
  0000A7  :  0180;
  0000A8  :  0190;
  0000A9  :  FD0D;
  0000AA  :  049F;
  0000AB  :  FF9E;
  0000AC  :  FA99;
  0000AD  :  FA5C;
  0000AE  :  FA8E;
  0000AF  :  004A;
  0000B0  :  05E7;
  0000B1  :  FE12;
  0000B2  :  FD24;
  0000B3  :  0507;
  0000B4  :  01EB;
  0000B5  :  0485;
  0000B6  :  FB4B;
  0000B7  :  031F;
  0000B8  :  FD5C;
  0000B9  :  FD8E;
  0000BA  :  FD76;
  0000BB  :  FC1D;
  0000BC  :  FE1C;
  0000BD  :  FA31;
  0000BE  :  FF6E;
  0000BF  :  FC1E;
  0000C0  :  FC3B;
  0000C1  :  0540;
  0000C2  :  FDFA;
  0000C3  :  052B;
  0000C4  :  FD19;
  0000C5  :  02F9;
  0000C6  :  FEB4;
  0000C7  :  0274;
  0000C8  :  023E;
  0000C9  :  FE5F;
  0000CA  :  FDA7;
  0000CB  :  0530;
  0000CC  :  03AC;
  0000CD  :  FAED;
  0000CE  :  0518;
  0000CF  :  04F5;
  0000D0  :  05E6;
  0000D1  :  FFCF;
  0000D2  :  00BA;
  0000D3  :  0195;
  0000D4  :  02B4;
  0000D5  :  FB1D;
  0000D6  :  FEC2;
  0000D7  :  000D;
  0000D8  :  02B9;
  0000D9  :  02A4;
  0000DA  :  FCB4;
  0000DB  :  FC8D;
  0000DC  :  FB18;
  0000DD  :  02DF;
  0000DE  :  00EC;
  0000DF  :  FD01;
  0000E0  :  FCC6;
  0000E1  :  041F;
  0000E2  :  0291;
  0000E3  :  010A;
  0000E4  :  FE8D;
  0000E5  :  0029;
  0000E6  :  04DB;
  0000E7  :  FF7B;
  0000E8  :  FE0B;
  0000E9  :  01FD;
  0000EA  :  FE66;
  0000EB  :  FBD6;
  0000EC  :  FC6C;
  0000ED  :  0325;
  0000EE  :  FB80;
  0000EF  :  F917;
  0000F0  :  FA90;
  0000F1  :  FC4F;
  0000F2  :  FD56;
  0000F3  :  00CA;
  0000F4  :  FB97;
  0000F5  :  044A;
  0000F6  :  0274;
  0000F7  :  031C;
  0000F8  :  FABE;
  0000F9  :  FF6A;
  0000FA  :  FA98;
  0000FB  :  03FF;
  0000FC  :  FE38;
  0000FD  :  0059;
  0000FE  :  FDE2;
  0000FF  :  0101;
  000100  :  FFEF;
  000101  :  FB30;
  000102  :  013E;
  000103  :  0122;
  000104  :  0655;
  000105  :  FFF4;
  000106  :  03A0;
  000107  :  04AB;
  000108  :  0370;
  000109  :  00D7;
  00010A  :  FF74;
  00010B  :  0348;
  00010C  :  00D6;
  00010D  :  0148;
  00010E  :  FE3E;
  00010F  :  0441;
  000110  :  04C0;
  000111  :  FD0A;
  000112  :  0278;
  000113  :  F910;
  000114  :  FA0A;
  000115  :  FB10;
  000116  :  FAE2;
  000117  :  03E4;
  000118  :  FE19;
  000119  :  FC6F;
  00011A  :  02FD;
  00011B  :  036D;
  00011C  :  00D3;
  00011D  :  01E5;
  00011E  :  0067;
  00011F  :  FD76;
  000120  :  FFAC;
  000121  :  05E3;
  000122  :  FD6A;
  000123  :  FF59;
  000124  :  01EC;
  000125  :  F8CE;
  000126  :  0184;
  000127  :  FC75;
  000128  :  FD01;
  000129  :  0287;
  00012A  :  FE81;
  00012B  :  03B8;
  00012C  :  044F;
  00012D  :  FF1E;
  00012E  :  FF8C;
  00012F  :  0279;
  000130  :  FADD;
  000131  :  FB2D;
  000132  :  017C;
  000133  :  0468;
  000134  :  FD85;
  000135  :  0594;
  000136  :  020D;
  000137  :  FB23;
  000138  :  0212;
  000139  :  FC13;
  00013A  :  039E;
  00013B  :  03AF;
  00013C  :  0516;
  00013D  :  FD44;
  00013E  :  0542;
  00013F  :  FEFE;
  000140  :  FB4E;
  000141  :  016C;
  000142  :  FEEE;
  000143  :  FFDA;
  000144  :  FBF6;
  000145  :  05E7;
  000146  :  FEE7;
  000147  :  FF64;
  000148  :  FA2F;
  000149  :  FA85;
  00014A  :  FEC0;
  00014B  :  04A6;
  00014C  :  FE71;
  00014D  :  05CA;
  00014E  :  00F0;
  00014F  :  FAFD;
  000150  :  FFDA;
  000151  :  0078;
  000152  :  FFBB;
  000153  :  039E;
  000154  :  00F4;
  000155  :  FECC;
  000156  :  FB83;
  000157  :  03DA;
  000158  :  0219;
  000159  :  050F;
  00015A  :  020B;
  00015B  :  FAAC;
  00015C  :  F9C4;
  00015D  :  FF3F;
  00015E  :  FE30;
  00015F  :  FAC1;
  000160  :  0343;
  000161  :  FAA1;
  000162  :  0033;
  000163  :  FAC1;
  000164  :  001A;
  000165  :  FCF9;
  000166  :  FD15;
  000167  :  FA0D;
  000168  :  0414;
  000169  :  0161;
  00016A  :  FB0B;
  00016B  :  FABE;
  00016C  :  FB14;
  00016D  :  0061;
  00016E  :  FD8A;
  00016F  :  FAB5;
  000170  :  FDA3;
  000171  :  FDC4;
  000172  :  FA99;
  000173  :  0312;
  000174  :  0430;
  000175  :  FE75;
  000176  :  060F;
  000177  :  FD79;
  000178  :  FB1A;
  000179  :  FBE9;
  00017A  :  FCF8;
  00017B  :  FF2F;
  00017C  :  FDEE;
  00017D  :  025F;
  00017E  :  00D3;
  00017F  :  FF0C;
  000180  :  FF28;
  000181  :  032E;
  000182  :  FCE6;
  000183  :  020D;
  000184  :  FADF;
  000185  :  FAD7;
  000186  :  03F8;
  000187  :  0162;
  000188  :  FFAB;
  000189  :  051B;
  00018A  :  FBFA;
  00018B  :  FAB5;
  00018C  :  0108;
  00018D  :  FC5C;
  00018E  :  FB67;
  00018F  :  FFCE;
  000190  :  04DF;
  000191  :  FC99;
  000192  :  04F7;
  000193  :  FF32;
  000194  :  F9E2;
  000195  :  027A;
  000196  :  F968;
  000197  :  036E;
  000198  :  FF46;
  000199  :  0072;
  00019A  :  FD72;
  00019B  :  FF63;
  00019C  :  03F9;
  00019D  :  FF26;
  00019E  :  010C;
  00019F  :  FE04;
  0001A0  :  01C9;
  0001A1  :  05AA;
  0001A2  :  FC56;
  0001A3  :  02DC;
  0001A4  :  FBE9;
  0001A5  :  FDFB;
  0001A6  :  FD49;
  0001A7  :  0535;
  0001A8  :  01A0;
  0001A9  :  0194;
  0001AA  :  FE46;
  0001AB  :  0444;
  0001AC  :  0131;
  0001AD  :  02FB;
  0001AE  :  0391;
  0001AF  :  FE33;
  0001B0  :  0512;
  0001B1  :  FAB6;
  0001B2  :  FFD4;
  0001B3  :  00BE;
  0001B4  :  FF6B;
  0001B5  :  018D;
  0001B6  :  FF34;
  0001B7  :  02F4;
  0001B8  :  FA39;
  0001B9  :  029A;
  0001BA  :  FF2C;
  0001BB  :  05E0;
  0001BC  :  0394;
  0001BD  :  FE1C;
  0001BE  :  FE03;
  0001BF  :  01C4;
  0001C0  :  0037;
  0001C1  :  FD80;
  0001C2  :  0540;
  0001C3  :  0392;
  0001C4  :  FD3E;
  0001C5  :  03E5;
  0001C6  :  0385;
  0001C7  :  FDC7;
  0001C8  :  0134;
  0001C9  :  FCD7;
  0001CA  :  01C6;
  0001CB  :  03CD;
  0001CC  :  FEEF;
  0001CD  :  0246;
  0001CE  :  04C8;
  0001CF  :  0011;
  0001D0  :  01D2;
  0001D1  :  0005;
  0001D2  :  0404;
  0001D3  :  FD65;
  0001D4  :  0256;
  0001D5  :  0119;
  0001D6  :  00DC;
  0001D7  :  05D4;
  0001D8  :  0489;
  0001D9  :  FBA6;
  0001DA  :  0528;
  0001DB  :  FFA4;
  0001DC  :  0387;
  0001DD  :  005F;
  0001DE  :  02E7;
  0001DF  :  0184;
  0001E0  :  03CE;
  0001E1  :  FE67;
  0001E2  :  FC47;
  0001E3  :  06A3;
  0001E4  :  030C;
  0001E5  :  FE2D;
  0001E6  :  000E;
  0001E7  :  0535;
  0001E8  :  0705;
  0001E9  :  FF40;
  0001EA  :  0649;
  0001EB  :  056C;
  0001EC  :  0407;
  0001ED  :  FBB0;
  0001EE  :  FD3D;
  0001EF  :  FDA9;
  0001F0  :  FAD4;
  0001F1  :  042A;
  0001F2  :  FAFD;
  0001F3  :  FCF3;
  0001F4  :  0440;
  0001F5  :  FB23;
  0001F6  :  FA76;
  0001F7  :  02B2;
  0001F8  :  02A4;
  0001F9  :  FD04;
  0001FA  :  FE80;
  0001FB  :  0454;
  0001FC  :  FC58;
  0001FD  :  009A;
  0001FE  :  03F8;
  0001FF  :  04C7;
  000200  :  00A5;
  000201  :  05B3;
  000202  :  FBDD;
  000203  :  041C;
  000204  :  FFB8;
  000205  :  017E;
  000206  :  0500;
  000207  :  FDA0;
  000208  :  FC0A;
  000209  :  0088;
  00020A  :  FB08;
  00020B  :  0512;
  00020C  :  FF15;
  00020D  :  0022;
  00020E  :  048C;
  00020F  :  04F3;
  000210  :  FD8C;
  000211  :  FF7B;
  000212  :  065C;
  000213  :  FCE0;
  000214  :  059B;
  000215  :  04BE;
  000216  :  FD98;
  000217  :  FF1A;
  000218  :  04DC;
  000219  :  FFDA;
  00021A  :  FEB9;
  00021B  :  FFB7;
  00021C  :  041C;
  00021D  :  06FF;
  00021E  :  05B3;
  00021F  :  029B;
  000220  :  FCF6;
  000221  :  0133;
  000222  :  054F;
  000223  :  00ED;
  000224  :  02D6;
  000225  :  0142;
  000226  :  0486;
  000227  :  FA7A;
  000228  :  FC67;
  000229  :  F97B;
  00022A  :  0045;
  00022B  :  03C5;
  00022C  :  FCAE;
  00022D  :  FEA3;
  00022E  :  FC21;
  00022F  :  00E3;
  000230  :  FDD1;
  000231  :  01A0;
  000232  :  FA34;
  000233  :  FB87;
  000234  :  0377;
  000235  :  FF7B;
  000236  :  FEB8;
  000237  :  0207;
  000238  :  0186;
  000239  :  FBBB;
  00023A  :  05BB;
  00023B  :  04AE;
  00023C  :  061C;
  00023D  :  0550;
  00023E  :  FB3A;
  00023F  :  FFB9;
  000240  :  0239;
  000241  :  015F;
  000242  :  0429;
  000243  :  034C;
  000244  :  F931;
  000245  :  FA24;
  000246  :  FD12;
  000247  :  04A5;
  000248  :  054D;
  000249  :  0092;
  00024A  :  01FE;
  00024B  :  FF01;
  00024C  :  0285;
  00024D  :  FD74;
  00024E  :  FFD6;
  00024F  :  FB09;
  000250  :  FF3B;
  000251  :  FBD2;
  000252  :  FEED;
  000253  :  046E;
  000254  :  FA56;
  000255  :  0024;
  000256  :  00C2;
  000257  :  0290;
  000258  :  02C6;
  000259  :  FF24;
  00025A  :  FB48;
  00025B  :  FB4D;
  00025C  :  FEEB;
  00025D  :  05FF;
  00025E  :  FAC8;
  00025F  :  FE4F;
  000260  :  FB0C;
  000261  :  FE18;
  000262  :  FA21;
  000263  :  02D5;
  000264  :  0562;
  000265  :  058B;
  000266  :  0391;
  000267  :  0349;
  000268  :  0308;
  000269  :  0552;
  00026A  :  FC03;
  00026B  :  FA40;
  00026C  :  04FF;
  00026D  :  FD73;
  00026E  :  FBBB;
  00026F  :  0031;
  000270  :  FB8F;
  000271  :  FE36;
  000272  :  FB40;
  000273  :  FC51;
  000274  :  0070;
  000275  :  FF1B;
  000276  :  FD33;
  000277  :  0066;
  000278  :  FAA7;
  000279  :  FB80;
  00027A  :  FC23;
  00027B  :  0057;
  00027C  :  0138;
  00027D  :  0377;
  00027E  :  FA01;
  00027F  :  0588;
  000280  :  0034;
  000281  :  0569;
  000282  :  039A;
  000283  :  03DA;
  000284  :  FA5B;
  000285  :  FA79;
  000286  :  014A;
  000287  :  FAA3;
  000288  :  0333;
  000289  :  0209;
  00028A  :  0525;
  00028B  :  03A8;
  00028C  :  024A;
  00028D  :  FAEF;
  00028E  :  02F5;
  00028F  :  03EA;
  000290  :  FA12;
  000291  :  FB58;
  000292  :  027F;
  000293  :  02F8;
  000294  :  FCF4;
  000295  :  FCF5;
  000296  :  F958;
  000297  :  FA8B;
  000298  :  0045;
  000299  :  FE87;
  00029A  :  FF28;
  00029B  :  051C;
  00029C  :  FABE;
  00029D  :  FFCC;
  00029E  :  05C4;
  00029F  :  01D1;
  0002A0  :  FD2E;
  0002A1  :  0572;
  0002A2  :  051E;
  0002A3  :  FE86;
  0002A4  :  055C;
  0002A5  :  01BF;
  0002A6  :  01BE;
  0002A7  :  FC0C;
  0002A8  :  FFE4;
  0002A9  :  0428;
  0002AA  :  0204;
  0002AB  :  01AA;
  0002AC  :  017F;
  0002AD  :  FE6D;
  0002AE  :  FAAD;
  0002AF  :  01C6;
  0002B0  :  04FF;
  0002B1  :  0517;
  0002B2  :  FE4E;
  0002B3  :  0310;
  0002B4  :  0095;
  0002B5  :  0342;
  0002B6  :  FE74;
  0002B7  :  0004;
  0002B8  :  FC24;
  0002B9  :  FD37;
  0002BA  :  01AA;
  0002BB  :  0425;
  0002BC  :  FD71;
  0002BD  :  0044;
  0002BE  :  05E2;
  0002BF  :  FB16;
  0002C0  :  000A;
  0002C1  :  0035;
  0002C2  :  0257;
  0002C3  :  002A;
  0002C4  :  FCBF;
  0002C5  :  0161;
  0002C6  :  FA31;
  0002C7  :  024C;
  0002C8  :  FDD0;
  0002C9  :  FAEC;
  0002CA  :  04E2;
  0002CB  :  FE20;
  0002CC  :  04D0;
  0002CD  :  FBE2;
  0002CE  :  FF50;
  0002CF  :  FA33;
  0002D0  :  01F6;
  0002D1  :  FFFF;
  0002D2  :  FFCA;
  0002D3  :  FFC9;
  0002D4  :  03C5;
  0002D5  :  0356;
  0002D6  :  FA97;
  0002D7  :  FCF9;
  0002D8  :  005F;
  0002D9  :  018A;
  0002DA  :  026D;
  0002DB  :  FA1C;
  0002DC  :  047E;
  0002DD  :  0201;
  0002DE  :  FC81;
  0002DF  :  FF7A;
  0002E0  :  042F;
  0002E1  :  FEFA;
  0002E2  :  FE60;
  0002E3  :  0159;
  0002E4  :  FAAC;
  0002E5  :  02C6;
  0002E6  :  0524;
  0002E7  :  04AE;
  0002E8  :  0172;
  0002E9  :  FAD9;
  0002EA  :  FAF9;
  0002EB  :  FD73;
  0002EC  :  FAFE;
  0002ED  :  03FD;
  0002EE  :  01EE;
  0002EF  :  FD6B;
  0002F0  :  0474;
  0002F1  :  FA34;
  0002F2  :  02D9;
  0002F3  :  FC7A;
  0002F4  :  0492;
  0002F5  :  03DC;
  0002F6  :  02BE;
  0002F7  :  FF48;
  0002F8  :  03B2;
  0002F9  :  FD38;
  0002FA  :  038A;
  0002FB  :  001D;
  0002FC  :  FFEA;
  0002FD  :  FC62;
  0002FE  :  FF48;
  0002FF  :  FF89;
  000300  :  FF4C;
  000301  :  FD56;
  000302  :  FFBC;
  000303  :  FF8A;
  000304  :  000E;
  000305  :  05BC;
  000306  :  FD42;
  000307  :  0120;
  000308  :  FB5F;
  000309  :  FDF7;
  00030A  :  0424;
  00030B  :  FAF0;
  00030C  :  014C;
  00030D  :  02FD;
  00030E  :  0338;
  00030F  :  019B;
  000310  :  FFAA;
END;