WIDTH = 16;
DEPTH = 524800;

ADDRESS_RADIX = HEX;
DATA_RADIX = HEX;

CONTENT BEGIN
  000000  :  0784;
  000001  :  FF00;
  000002  :  FB61;
  000003  :  FA9F;
  000004  :  047A;
  000005  :  07E9;
  000006  :  FD8B;
  000007  :  056B;
  000008  :  FCF0;
  000009  :  FC4C;
  00000A  :  F96A;
  00000B  :  0305;
  00000C  :  0332;
  00000D  :  FB0D;
  00000E  :  050E;
  00000F  :  F91E;
  000010  :  06AC;
  000011  :  FA50;
  000012  :  FE54;
  000013  :  FA3E;
  000014  :  FB92;
  000015  :  FA58;
  000016  :  FE85;
  000017  :  0236;
  000018  :  054A;
  000019  :  07D0;
  00001A  :  FC43;
  00001B  :  078B;
  00001C  :  F8B3;
  00001D  :  06C5;
  00001E  :  FA08;
  00001F  :  F95A;
  000020  :  FEAC;
  000021  :  0082;
  000022  :  F937;
  000023  :  03CF;
  000024  :  FB39;
  000025  :  FACD;
  000026  :  FB1C;
  000027  :  FA2D;
  000028  :  F7F7;
  000029  :  F9FD;
  00002A  :  0142;
  00002B  :  04DC;
  00002C  :  0341;
  00002D  :  FEB2;
  00002E  :  056B;
  00002F  :  F951;
  000030  :  FDCE;
  000031  :  F99A;
  000032  :  0148;
  000033  :  FB6B;
  000034  :  F899;
  000035  :  F8A3;
  000036  :  013C;
  000037  :  FFC9;
  000038  :  FA77;
  000039  :  074F;
  00003A  :  00A4;
  00003B  :  05B1;
  00003C  :  069B;
  00003D  :  0225;
  00003E  :  FBE9;
  00003F  :  FAD8;
  000040  :  FD57;
  000041  :  039C;
  000042  :  FCBD;
  000043  :  0714;
  000044  :  FE46;
  000045  :  0142;
  000046  :  FA44;
  000047  :  0089;
  000048  :  FC15;
  000049  :  FF38;
  00004A  :  FC2A;
  00004B  :  FA0B;
  00004C  :  00F4;
  00004D  :  0345;
  00004E  :  F87F;
  00004F  :  0620;
  000050  :  F8B6;
  000051  :  05E9;
  000052  :  04EE;
  000053  :  0718;
  000054  :  FF2B;
  000055  :  0180;
  000056  :  0197;
  000057  :  F9B4;
  000058  :  0293;
  000059  :  0724;
  00005A  :  05CA;
  00005B  :  00C2;
  00005C  :  FED7;
  00005D  :  079F;
  00005E  :  FAD8;
  00005F  :  FF7B;
  000060  :  0214;
  000061  :  FEAB;
  000062  :  0682;
  000063  :  07B9;
  000064  :  01DA;
  000065  :  0160;
  000066  :  FA9A;
  000067  :  FE2C;
  000068  :  FDDB;
  000069  :  05ED;
  00006A  :  00CB;
  00006B  :  04EF;
  00006C  :  0003;
  00006D  :  009A;
  00006E  :  033B;
  00006F  :  0506;
  000070  :  04D1;
  000071  :  FADA;
  000072  :  023A;
  000073  :  FED0;
  000074  :  FF5A;
  000075  :  03FA;
  000076  :  0714;
  000077  :  01DF;
  000078  :  0018;
  000079  :  035F;
  00007A  :  06DD;
  00007B  :  FA32;
  00007C  :  0489;
  00007D  :  FCCA;
  00007E  :  FF2F;
  00007F  :  F8EC;
  000080  :  F82C;
  000081  :  FD34;
  000082  :  0218;
  000083  :  FB7F;
  000084  :  0247;
  000085  :  0658;
  000086  :  0050;
  000087  :  F938;
  000088  :  FCDF;
  000089  :  F9B5;
  00008A  :  04D4;
  00008B  :  FAE4;
  00008C  :  04B2;
  00008D  :  01F1;
  00008E  :  F8A6;
  00008F  :  FFC4;
  000090  :  FAC2;
  000091  :  0526;
  000092  :  01BB;
  000093  :  067D;
  000094  :  FF94;
  000095  :  FA28;
  000096  :  00DE;
  000097  :  F995;
  000098  :  015F;
  000099  :  FD49;
  00009A  :  FAD1;
  00009B  :  FD25;
  00009C  :  FBA5;
  00009D  :  F8C1;
  00009E  :  029D;
  00009F  :  F878;
  0000A0  :  026C;
  0000A1  :  07C3;
  0000A2  :  00F9;
  0000A3  :  FF7F;
  0000A4  :  FC45;
  0000A5  :  043A;
  0000A6  :  01CE;
  0000A7  :  000A;
  0000A8  :  02AF;
  0000A9  :  F83B;
  0000AA  :  FA8D;
  0000AB  :  0745;
  0000AC  :  FD4D;
  0000AD  :  FD11;
  0000AE  :  FADF;
  0000AF  :  FEBB;
  0000B0  :  02F9;
  0000B1  :  FC69;
  0000B2  :  FF94;
  0000B3  :  01AC;
  0000B4  :  F89C;
  0000B5  :  FC2D;
  0000B6  :  06C8;
  0000B7  :  FEF4;
  0000B8  :  F896;
  0000B9  :  F8E8;
  0000BA  :  06FD;
  0000BB  :  0001;
  0000BC  :  01E6;
  0000BD  :  FBD3;
  0000BE  :  03EC;
  0000BF  :  019C;
  0000C0  :  FF69;
  0000C1  :  0291;
  0000C2  :  0137;
  0000C3  :  FCA2;
  0000C4  :  F7E5;
  0000C5  :  02FF;
  0000C6  :  05C5;
  0000C7  :  05AD;
  0000C8  :  F8B1;
  0000C9  :  FB0B;
  0000CA  :  FBAE;
  0000CB  :  01A8;
  0000CC  :  022C;
  0000CD  :  FF30;
  0000CE  :  FF9B;
  0000CF  :  FD18;
  0000D0  :  FA56;
  0000D1  :  FBB6;
  0000D2  :  0683;
  0000D3  :  0147;
  0000D4  :  03AB;
  0000D5  :  0366;
  0000D6  :  F875;
  0000D7  :  F926;
  0000D8  :  FD90;
  0000D9  :  0177;
  0000DA  :  035D;
  0000DB  :  F99D;
  0000DC  :  0741;
  0000DD  :  FA9F;
  0000DE  :  FD5F;
  0000DF  :  04DD;
  0000E0  :  0680;
  0000E1  :  071C;
  0000E2  :  051D;
  0000E3  :  02D4;
  0000E4  :  0027;
  0000E5  :  F9BB;
  0000E6  :  0205;
  0000E7  :  02B4;
  0000E8  :  FE3A;
  0000E9  :  FCE9;
  0000EA  :  F9E2;
  0000EB  :  F87D;
  0000EC  :  07C9;
  0000ED  :  05F8;
  0000EE  :  FCEA;
  0000EF  :  030F;
  0000F0  :  F8DD;
  0000F1  :  020E;
  0000F2  :  FF6D;
  0000F3  :  FDF8;
  0000F4  :  F894;
  0000F5  :  07AC;
  0000F6  :  FFE1;
  0000F7  :  F88F;
  0000F8  :  0347;
  0000F9  :  FD11;
  0000FA  :  F937;
  0000FB  :  0721;
  0000FC  :  067D;
  0000FD  :  FD51;
  0000FE  :  F9A4;
  0000FF  :  FB8E;
  000100  :  F8BC;
  000101  :  052C;
  000102  :  FD7F;
  000103  :  02EB;
  000104  :  FF45;
  000105  :  FD94;
  000106  :  0459;
  000107  :  F980;
  000108  :  FA90;
  000109  :  050B;
  00010A  :  07BC;
  00010B  :  FFF2;
  00010C  :  040C;
  00010D  :  F875;
  00010E  :  07CD;
  00010F  :  05ED;
  000110  :  0074;
  000111  :  FC82;
  000112  :  FCE7;
  000113  :  FC63;
  000114  :  FAD0;
  000115  :  073E;
  000116  :  03C2;
  000117  :  FD15;
  000118  :  F8EC;
  000119  :  0472;
  00011A  :  002A;
  00011B  :  FA51;
  00011C  :  FA58;
  00011D  :  FDFA;
  00011E  :  06B9;
  00011F  :  03B8;
  000120  :  0336;
  000121  :  FF78;
  000122  :  05F0;
  000123  :  0481;
  000124  :  F95B;
  000125  :  FA0B;
  000126  :  FC02;
  000127  :  039A;
  000128  :  FDC4;
  000129  :  0193;
  00012A  :  050D;
  00012B  :  FC88;
  00012C  :  FECB;
  00012D  :  076C;
  00012E  :  012F;
  00012F  :  FE60;
  000130  :  03EE;
  000131  :  F91F;
  000132  :  0027;
  000133  :  FD4C;
  000134  :  FC73;
  000135  :  0619;
  000136  :  F886;
  000137  :  F890;
  000138  :  FC11;
  000139  :  04ED;
  00013A  :  052B;
  00013B  :  0306;
  00013C  :  00DF;
  00013D  :  02FB;
  00013E  :  FAE9;
  00013F  :  FF81;
  000140  :  0626;
  000141  :  F89F;
  000142  :  0121;
  000143  :  FDC6;
  000144  :  045B;
  000145  :  06E3;
  000146  :  039A;
  000147  :  FD4C;
  000148  :  0567;
  000149  :  FC51;
  00014A  :  F8B2;
  00014B  :  07D4;
  00014C  :  0540;
  00014D  :  040F;
  00014E  :  0733;
  00014F  :  FBE7;
  000150  :  F885;
  000151  :  F7D8;
  000152  :  04ED;
  000153  :  F8D3;
  000154  :  04DD;
  000155  :  FC9C;
  000156  :  072F;
  000157  :  03DE;
  000158  :  FA53;
  000159  :  03CD;
  00015A  :  FC39;
  00015B  :  04B3;
  00015C  :  FCBC;
  00015D  :  05DB;
  00015E  :  FDCE;
  00015F  :  FC34;
  000160  :  FC1F;
  000161  :  066F;
  000162  :  FBC8;
  000163  :  FC9F;
  000164  :  F8D8;
  000165  :  0756;
  000166  :  062C;
  000167  :  F838;
  000168  :  03E1;
  000169  :  0360;
  00016A  :  FCA8;
  00016B  :  FE8F;
  00016C  :  FB57;
  00016D  :  FB8B;
  00016E  :  045D;
  00016F  :  046A;
  000170  :  065E;
  000171  :  FB87;
  000172  :  004B;
  000173  :  0412;
  000174  :  FBCE;
  000175  :  FF2A;
  000176  :  FF15;
  000177  :  FAC0;
  000178  :  FBA4;
  000179  :  00FE;
  00017A  :  067D;
  00017B  :  0773;
  00017C  :  026F;
  00017D  :  FE0E;
  00017E  :  F8D0;
  00017F  :  F895;
  000180  :  FFA8;
  000181  :  FC08;
  000182  :  FEE2;
  000183  :  036B;
  000184  :  013A;
  000185  :  FE85;
  000186  :  FA4D;
  000187  :  F873;
  000188  :  FB7E;
  000189  :  FFFA;
  00018A  :  0551;
  00018B  :  06BA;
  00018C  :  F935;
  00018D  :  06FF;
  00018E  :  F811;
  00018F  :  FD55;
  000190  :  0213;
  000191  :  FA9E;
  000192  :  066B;
  000193  :  0768;
  000194  :  026C;
  000195  :  07C2;
  000196  :  FC56;
  000197  :  FC6D;
  000198  :  FEAE;
  000199  :  068D;
  00019A  :  0343;
  00019B  :  FDA3;
  00019C  :  0454;
  00019D  :  0385;
  00019E  :  F9D8;
  00019F  :  FA9F;
  0001A0  :  FE18;
  0001A1  :  0603;
  0001A2  :  00D4;
  0001A3  :  FD42;
  0001A4  :  FEE8;
  0001A5  :  FD29;
  0001A6  :  FAF3;
  0001A7  :  01C3;
  0001A8  :  065A;
  0001A9  :  F9DE;
  0001AA  :  FFF5;
  0001AB  :  0745;
  0001AC  :  07A7;
  0001AD  :  042D;
  0001AE  :  FE00;
  0001AF  :  FF90;
  0001B0  :  00C6;
  0001B1  :  FDFC;
  0001B2  :  FA47;
  0001B3  :  047D;
  0001B4  :  FF64;
  0001B5  :  FE30;
  0001B6  :  FB56;
  0001B7  :  FACB;
  0001B8  :  0575;
  0001B9  :  FAB3;
  0001BA  :  05B9;
  0001BB  :  061B;
  0001BC  :  0778;
  0001BD  :  FDFA;
  0001BE  :  061A;
  0001BF  :  0207;
  0001C0  :  0764;
  0001C1  :  FB3E;
  0001C2  :  07A0;
  0001C3  :  0542;
  0001C4  :  FD25;
  0001C5  :  07D9;
  0001C6  :  FFB0;
  0001C7  :  0287;
  0001C8  :  0098;
  0001C9  :  FB80;
  0001CA  :  0102;
  0001CB  :  FF85;
  0001CC  :  0699;
  0001CD  :  0034;
  0001CE  :  06E7;
  0001CF  :  012D;
  0001D0  :  002D;
  0001D1  :  FFF9;
  0001D2  :  FACC;
  0001D3  :  F94F;
  0001D4  :  F942;
  0001D5  :  FA71;
  0001D6  :  04CB;
  0001D7  :  FB90;
  0001D8  :  FD4F;
  0001D9  :  06C2;
  0001DA  :  F93B;
  0001DB  :  0498;
  0001DC  :  07E2;
  0001DD  :  FF9E;
  0001DE  :  0724;
  0001DF  :  066C;
  0001E0  :  04A1;
  0001E1  :  FA1F;
  0001E2  :  0145;
  0001E3  :  0307;
  0001E4  :  023C;
  0001E5  :  0201;
  0001E6  :  FD7E;
  0001E7  :  03E0;
  0001E8  :  022D;
  0001E9  :  F807;
  0001EA  :  057F;
  0001EB  :  FB0F;
  0001EC  :  FF70;
  0001ED  :  05FD;
  0001EE  :  F98C;
  0001EF  :  FC53;
  0001F0  :  FC30;
  0001F1  :  06FF;
  0001F2  :  05E8;
  0001F3  :  FC76;
  0001F4  :  F9A8;
  0001F5  :  F955;
  0001F6  :  003D;
  0001F7  :  06C7;
  0001F8  :  0411;
  0001F9  :  018E;
  0001FA  :  0489;
  0001FB  :  FA83;
  0001FC  :  FBB2;
  0001FD  :  00DA;
  0001FE  :  FFB1;
  0001FF  :  FA85;
  000200  :  FB1C;
  000201  :  FC3A;
  000202  :  FC8D;
  000203  :  FEFF;
  000204  :  062D;
  000205  :  044E;
  000206  :  FC46;
  000207  :  F80E;
  000208  :  F90D;
  000209  :  0736;
  00020A  :  01DA;
  00020B  :  FBE8;
  00020C  :  FD0A;
  00020D  :  06FE;
  00020E  :  024A;
  00020F  :  0372;
  000210  :  0587;
  000211  :  0587;
  000212  :  0081;
  000213  :  FEB7;
  000214  :  04A3;
  000215  :  FAE6;
  000216  :  FDDC;
  000217  :  05A7;
  000218  :  FEC5;
  000219  :  FF06;
  00021A  :  0210;
  00021B  :  FE5F;
  00021C  :  02D5;
  00021D  :  05E1;
  00021E  :  FEC7;
  00021F  :  FD7A;
  000220  :  FD42;
  000221  :  021F;
  000222  :  F847;
  000223  :  050C;
  000224  :  FA7D;
  000225  :  05CD;
  000226  :  FC39;
  000227  :  05FE;
  000228  :  0768;
  000229  :  FE1A;
  00022A  :  FF83;
  00022B  :  0162;
  00022C  :  046D;
  00022D  :  FE25;
  00022E  :  047F;
  00022F  :  FF25;
  000230  :  FBBE;
  000231  :  00D5;
  000232  :  077C;
  000233  :  FFB8;
  000234  :  0277;
  000235  :  F898;
  000236  :  FEFF;
  000237  :  FE76;
  000238  :  FB43;
  000239  :  0253;
  00023A  :  03C7;
  00023B  :  FADC;
  00023C  :  FFC1;
  00023D  :  FEE8;
  00023E  :  FFE9;
  00023F  :  019F;
  000240  :  020F;
  000241  :  0243;
  000242  :  061B;
  000243  :  0364;
  000244  :  06B8;
  000245  :  FF49;
  000246  :  0783;
  000247  :  F8C4;
  000248  :  FD2C;
  000249  :  F80F;
  00024A  :  F892;
  00024B  :  FDD6;
  00024C  :  FBC3;
  00024D  :  039F;
  00024E  :  FD49;
  00024F  :  F9E1;
  000250  :  FE63;
  000251  :  0310;
  000252  :  FAF3;
  000253  :  01ED;
  000254  :  0020;
  000255  :  06A5;
  000256  :  FE8E;
  000257  :  FC2B;
  000258  :  F885;
  000259  :  06B3;
  00025A  :  FDFE;
  00025B  :  FD47;
  00025C  :  F826;
  00025D  :  07D4;
  00025E  :  0363;
  00025F  :  FE4B;
  000260  :  035B;
  000261  :  FD57;
  000262  :  FC6A;
  000263  :  009D;
  000264  :  F90A;
  000265  :  FED3;
  000266  :  FDD5;
  000267  :  0272;
  000268  :  FFF8;
  000269  :  0433;
  00026A  :  FEA6;
  00026B  :  0339;
  00026C  :  F8D9;
  00026D  :  FFE3;
  00026E  :  FD6A;
  00026F  :  F8E8;
  000270  :  FDC1;
  000271  :  03EB;
  000272  :  FF6E;
  000273  :  F92A;
  000274  :  FC6A;
  000275  :  F830;
  000276  :  FE24;
  000277  :  0284;
  000278  :  F854;
  000279  :  03CC;
  00027A  :  FBEB;
  00027B  :  FE61;
  00027C  :  04DF;
  00027D  :  01F0;
  00027E  :  FC13;
  00027F  :  F8A8;
  000280  :  FF06;
  000281  :  FE1D;
  000282  :  07B8;
  000283  :  0074;
  000284  :  FFCE;
  000285  :  FE04;
  000286  :  FFF0;
  000287  :  03F9;
  000288  :  FEBF;
  000289  :  FA0A;
  00028A  :  F9CD;
  00028B  :  FACC;
  00028C  :  FFC2;
  00028D  :  FA58;
  00028E  :  F8CC;
  00028F  :  F8A2;
  000290  :  00D1;
  000291  :  0053;
  000292  :  0318;
  000293  :  008E;
  000294  :  0076;
  000295  :  F9BF;
  000296  :  025B;
  000297  :  04E3;
  000298  :  07B1;
  000299  :  FB74;
  00029A  :  FA14;
  00029B  :  F8E8;
  00029C  :  00B7;
  00029D  :  0263;
  00029E  :  FF1C;
  00029F  :  FAA7;
  0002A0  :  0196;
  0002A1  :  FE20;
  0002A2  :  FC8E;
  0002A3  :  0372;
  0002A4  :  FB1A;
  0002A5  :  02AB;
  0002A6  :  F9DC;
  0002A7  :  FB57;
  0002A8  :  FC83;
  0002A9  :  FF85;
  0002AA  :  FC30;
  0002AB  :  FE0B;
  0002AC  :  FD2F;
  0002AD  :  0691;
  0002AE  :  042F;
  0002AF  :  FA23;
  0002B0  :  FE05;
  0002B1  :  0797;
  0002B2  :  FCE9;
  0002B3  :  05ED;
  0002B4  :  0283;
  0002B5  :  0729;
  0002B6  :  F946;
  0002B7  :  FA8B;
  0002B8  :  F8F6;
  0002B9  :  FBC5;
  0002BA  :  FF9B;
  0002BB  :  067E;
  0002BC  :  FB4B;
  0002BD  :  04CB;
  0002BE  :  0110;
  0002BF  :  0433;
  0002C0  :  FEEB;
  0002C1  :  0530;
  0002C2  :  03EB;
  0002C3  :  FC9C;
  0002C4  :  F9C2;
  0002C5  :  FA2A;
  0002C6  :  06EC;
  0002C7  :  069B;
  0002C8  :  F93C;
  0002C9  :  F98C;
  0002CA  :  F7FC;
  0002CB  :  FD16;
  0002CC  :  07AA;
  0002CD  :  FE3E;
  0002CE  :  FE16;
  0002CF  :  FC3D;
  0002D0  :  0318;
  0002D1  :  FCF7;
  0002D2  :  0109;
  0002D3  :  0004;
  0002D4  :  F94E;
  0002D5  :  FA53;
  0002D6  :  0386;
  0002D7  :  FBAF;
  0002D8  :  0114;
  0002D9  :  F9DA;
  0002DA  :  FF09;
  0002DB  :  04A8;
  0002DC  :  019B;
  0002DD  :  004D;
  0002DE  :  FD96;
  0002DF  :  006D;
  0002E0  :  FAF0;
  0002E1  :  F9BA;
  0002E2  :  F8B7;
  0002E3  :  F8C8;
  0002E4  :  046E;
  0002E5  :  0375;
  0002E6  :  071E;
  0002E7  :  03BE;
  0002E8  :  0519;
  0002E9  :  06E3;
  0002EA  :  FAA6;
  0002EB  :  FC04;
  0002EC  :  0226;
  0002ED  :  00C3;
  0002EE  :  FE24;
  0002EF  :  0447;
  0002F0  :  FE09;
  0002F1  :  FDB2;
  0002F2  :  0413;
  0002F3  :  FF9A;
  0002F4  :  FED6;
  0002F5  :  0306;
  0002F6  :  FBC8;
  0002F7  :  FD13;
  0002F8  :  FDC1;
  0002F9  :  03ED;
  0002FA  :  FFA0;
  0002FB  :  0196;
  0002FC  :  F846;
  0002FD  :  00A6;
  0002FE  :  0602;
  0002FF  :  F855;
  000300  :  0280;
  000301  :  FC34;
  000302  :  0178;
  000303  :  FD62;
  000304  :  00F9;
  000305  :  FE07;
  000306  :  FA5E;
  000307  :  01F3;
  000308  :  FFFD;
  000309  :  00FD;
  00030A  :  0097;
  00030B  :  FBBD;
  00030C  :  FF8B;
  00030D  :  00DB;
  00030E  :  FAF7;
  00030F  :  069E;
  000310  :  FF06;
  000311  :  FF8D;
  000312  :  FC0C;
  000313  :  02AF;
  000314  :  05C3;
  000315  :  039D;
  000316  :  FE11;
  000317  :  044B;
  000318  :  060F;
  000319  :  FC70;
  00031A  :  0549;
  00031B  :  FC55;
  00031C  :  FA60;
  00031D  :  061B;
  00031E  :  02B5;
  00031F  :  0251;
  000320  :  01D1;
  000321  :  06F1;
  000322  :  FCB7;
  000323  :  FF34;
  000324  :  01C6;
  000325  :  01A8;
  000326  :  0328;
  000327  :  FD9D;
  000328  :  0578;
  000329  :  F952;
  00032A  :  FCB1;
  00032B  :  FDF9;
  00032C  :  FD9A;
  00032D  :  0472;
  00032E  :  058E;
  00032F  :  FB9B;
  000330  :  033C;
  000331  :  018C;
  000332  :  FD7B;
  000333  :  03A9;
  000334  :  FDA5;
  000335  :  058D;
  000336  :  02CC;
  000337  :  06ED;
  000338  :  FDB8;
  000339  :  FDBB;
  00033A  :  0398;
  00033B  :  FAFD;
  00033C  :  FD49;
  00033D  :  0076;
  00033E  :  F86C;
  00033F  :  F815;
  000340  :  FD8E;
  000341  :  07F2;
  000342  :  079C;
  000343  :  05E6;
  000344  :  FB02;
  000345  :  04AB;
  000346  :  FC86;
  000347  :  05F2;
  000348  :  FBB6;
  000349  :  009D;
  00034A  :  0767;
  00034B  :  FA61;
  00034C  :  068E;
  00034D  :  01C9;
  00034E  :  0179;
  00034F  :  0549;
  000350  :  F9D9;
  000351  :  F81B;
  000352  :  0313;
  000353  :  04F0;
  000354  :  0564;
  000355  :  FBCC;
  000356  :  FE5B;
  000357  :  F88B;
  000358  :  0561;
  000359  :  FDFD;
  00035A  :  FF06;
  00035B  :  047E;
  00035C  :  FCE3;
  00035D  :  FA1A;
  00035E  :  0374;
  00035F  :  FA06;
  000360  :  F8E4;
  000361  :  FDA5;
  000362  :  0049;
  000363  :  0374;
  000364  :  F91D;
  000365  :  02A3;
  000366  :  0272;
  000367  :  014C;
  000368  :  F858;
  000369  :  F860;
  00036A  :  067D;
  00036B  :  FB0E;
  00036C  :  FF9B;
  00036D  :  FAE3;
  00036E  :  FC14;
  00036F  :  FB4B;
  000370  :  FCB7;
  000371  :  0487;
  000372  :  FB3C;
  000373  :  016A;
  000374  :  F864;
  000375  :  FD4B;
  000376  :  FF3E;
  000377  :  FD94;
  000378  :  0743;
  000379  :  FB4D;
  00037A  :  F9E0;
  00037B  :  0229;
  00037C  :  0033;
  00037D  :  FC18;
  00037E  :  076F;
  00037F  :  04A7;
  000380  :  FF32;
  000381  :  FDB1;
  000382  :  05CD;
  000383  :  0075;
  000384  :  0620;
  000385  :  FE3F;
  000386  :  FB9D;
  000387  :  FD00;
  000388  :  03CC;
  000389  :  FD21;
  00038A  :  0353;
  00038B  :  FCBF;
  00038C  :  04F2;
  00038D  :  0581;
  00038E  :  FE15;
  00038F  :  FE3C;
  000390  :  F932;
  000391  :  F841;
  000392  :  F862;
  000393  :  0698;
  000394  :  06BC;
  000395  :  F909;
  000396  :  FBEB;
  000397  :  0242;
  000398  :  F932;
  000399  :  0442;
  00039A  :  FAC5;
  00039B  :  01C9;
  00039C  :  06A2;
  00039D  :  FED5;
  00039E  :  077C;
  00039F  :  0474;
  0003A0  :  FF14;
  0003A1  :  FA95;
  0003A2  :  F863;
  0003A3  :  FD8E;
  0003A4  :  FC81;
  0003A5  :  019C;
  0003A6  :  FC65;
  0003A7  :  0483;
  0003A8  :  FD98;
  0003A9  :  FF36;
  0003AA  :  FD86;
  0003AB  :  0162;
  0003AC  :  0028;
  0003AD  :  F851;
  0003AE  :  F9A6;
  0003AF  :  FE7C;
  0003B0  :  FE85;
  0003B1  :  0523;
  0003B2  :  025C;
  0003B3  :  FFEF;
  0003B4  :  FE1B;
  0003B5  :  0579;
  0003B6  :  F836;
  0003B7  :  FEB6;
  0003B8  :  0280;
  0003B9  :  F801;
  0003BA  :  0003;
  0003BB  :  0481;
  0003BC  :  051C;
  0003BD  :  FAB8;
  0003BE  :  F846;
  0003BF  :  04A8;
  0003C0  :  0358;
  0003C1  :  07E1;
  0003C2  :  FA10;
  0003C3  :  FB0B;
  0003C4  :  FFC0;
  0003C5  :  FBCA;
  0003C6  :  FAE0;
  0003C7  :  FF80;
  0003C8  :  F809;
  0003C9  :  FF91;
  0003CA  :  069B;
  0003CB  :  FA14;
  0003CC  :  FEA2;
  0003CD  :  FD38;
  0003CE  :  05A5;
  0003CF  :  FEEB;
  0003D0  :  F8AA;
  0003D1  :  FF96;
  0003D2  :  0732;
  0003D3  :  021B;
  0003D4  :  FC33;
  0003D5  :  0383;
  0003D6  :  0693;
  0003D7  :  FAED;
  0003D8  :  0320;
  0003D9  :  0145;
  0003DA  :  070A;
  0003DB  :  FDEC;
  0003DC  :  02E0;
  0003DD  :  FA22;
  0003DE  :  FB94;
  0003DF  :  FFAD;
  0003E0  :  0158;
  0003E1  :  F9B5;
  0003E2  :  FD9B;
  0003E3  :  F8FF;
  0003E4  :  FADD;
  0003E5  :  02BA;
  0003E6  :  04AB;
  0003E7  :  0499;
  0003E8  :  FA7A;
  0003E9  :  FED0;
  0003EA  :  0008;
  0003EB  :  0436;
  0003EC  :  023E;
  0003ED  :  FB09;
  0003EE  :  FD18;
  0003EF  :  FEBD;
  0003F0  :  FF93;
  0003F1  :  00B1;
  0003F2  :  FB82;
  0003F3  :  04AD;
  0003F4  :  FDF9;
  0003F5  :  0203;
  0003F6  :  07B5;
  0003F7  :  FE2B;
  0003F8  :  F8F2;
  0003F9  :  FF02;
  0003FA  :  03F6;
  0003FB  :  FEFE;
  0003FC  :  FD69;
  0003FD  :  FB16;
  0003FE  :  FFD7;
  0003FF  :  F9CA;
END;