WIDTH = 16;
DEPTH = 2048;

ADDRESS_RADIX = HEX;
DATA_RADIX = HEX;

CONTENT BEGIN
  000000  :  0358;
  000001  :  FC08;
  000002  :  0492;
  000003  :  020D;
  000004  :  FA6E;
  000005  :  FD05;
  000006  :  FE83;
  000007  :  FE24;
  000008  :  0377;
  000009  :  053D;
  00000A  :  00AF;
  00000B  :  FDBE;
  00000C  :  052C;
  00000D  :  01B7;
  00000E  :  FEE8;
  00000F  :  032C;
  000010  :  0191;
  000011  :  0057;
  000012  :  0494;
  000013  :  0326;
  000014  :  FE41;
  000015  :  FA88;
  000016  :  FAAB;
  000017  :  038C;
  000018  :  FFCE;
  000019  :  015C;
  00001A  :  0211;
  00001B  :  FB94;
  00001C  :  FAAA;
  00001D  :  03AF;
  00001E  :  00C4;
  00001F  :  FDBE;
  000020  :  0075;
  000021  :  0410;
  000022  :  00BE;
  000023  :  02BC;
  000024  :  0511;
  000025  :  052C;
  000026  :  FFD0;
  000027  :  FC3E;
  000028  :  0372;
  000029  :  FC84;
  00002A  :  00A5;
  00002B  :  FFFB;
  00002C  :  04E8;
  00002D  :  FC06;
  00002E  :  FEBF;
  00002F  :  FE96;
  000030  :  041D;
  000031  :  024A;
  000032  :  015D;
  000033  :  01F2;
  000034  :  FE98;
  000035  :  03CF;
  000036  :  001F;
  000037  :  FAC5;
  000038  :  FBF5;
  000039  :  01CF;
  00003A  :  FD0F;
  00003B  :  FA74;
  00003C  :  0220;
  00003D  :  0488;
  00003E  :  FE22;
  00003F  :  0377;
  000040  :  FD41;
  000041  :  032D;
  000042  :  FB5A;
  000043  :  FE66;
  000044  :  0286;
  000045  :  040D;
  000046  :  0229;
  000047  :  04D1;
  000048  :  FF0A;
  000049  :  014F;
  00004A  :  03B3;
  00004B  :  0241;
  00004C  :  FD68;
  00004D  :  FF6F;
  00004E  :  04B3;
  00004F  :  FC1E;
  000050  :  FACB;
  000051  :  026E;
  000052  :  04A7;
  000053  :  05BC;
  000054  :  00BF;
  000055  :  000B;
  000056  :  FD4E;
  000057  :  0301;
  000058  :  023F;
  000059  :  0332;
  00005A  :  00CD;
  00005B  :  FBDC;
  00005C  :  02A6;
  00005D  :  0266;
  00005E  :  FF31;
  00005F  :  018A;
  000060  :  FDE3;
  000061  :  049F;
  000062  :  0195;
  000063  :  0472;
  000064  :  0264;
  000065  :  056E;
  000066  :  FB78;
  000067  :  FCFE;
  000068  :  FB06;
  000069  :  FB08;
  00006A  :  FE06;
  00006B  :  FB09;
  00006C  :  FF61;
  00006D  :  FACB;
  00006E  :  003B;
  00006F  :  FA59;
  000070  :  FAAA;
  000071  :  034D;
  000072  :  0389;
  000073  :  FF4F;
  000074  :  00DE;
  000075  :  0145;
  000076  :  046C;
  000077  :  FD11;
  000078  :  FB0D;
  000079  :  FB52;
  00007A  :  0246;
  00007B  :  04E4;
  00007C  :  0257;
  00007D  :  FFAA;
  00007E  :  FD67;
  00007F  :  FF9F;
  000080  :  0436;
  000081  :  FD87;
  000082  :  006F;
  000083  :  00F3;
  000084  :  FA31;
  000085  :  FB21;
  000086  :  FB1B;
  000087  :  053A;
  000088  :  FD57;
  000089  :  FF0C;
  00008A  :  FCDC;
  00008B  :  00E9;
  00008C  :  FAF7;
  00008D  :  0364;
  00008E  :  FC62;
  00008F  :  0230;
  000090  :  0513;
  000091  :  02A3;
  000092  :  03F0;
  000093  :  05B1;
  000094  :  0181;
  000095  :  0608;
  000096  :  FDA2;
  000097  :  01C1;
  000098  :  FBB1;
  000099  :  0365;
  00009A  :  0140;
  00009B  :  FE62;
  00009C  :  FAEF;
  00009D  :  0005;
  00009E  :  FDFC;
  00009F  :  FCA3;
  0000A0  :  FE20;
  0000A1  :  FB5B;
  0000A2  :  03B9;
  0000A3  :  01E5;
  0000A4  :  01B4;
  0000A5  :  FF24;
  0000A6  :  FAAB;
  0000A7  :  0064;
  0000A8  :  0355;
  0000A9  :  FAC1;
  0000AA  :  FEF1;
  0000AB  :  027B;
  0000AC  :  FD79;
  0000AD  :  017C;
  0000AE  :  0144;
  0000AF  :  FBDD;
  0000B0  :  0177;
  0000B1  :  FBDF;
  0000B2  :  059D;
  0000B3  :  FA6A;
  0000B4  :  0348;
  0000B5  :  FCA0;
  0000B6  :  FBBC;
  0000B7  :  FD8B;
  0000B8  :  FE7D;
  0000B9  :  FEDB;
  0000BA  :  FD07;
  0000BB  :  009C;
  0000BC  :  FAEC;
  0000BD  :  FD99;
  0000BE  :  004C;
  0000BF  :  056B;
  0000C0  :  058E;
  0000C1  :  FEB4;
  0000C2  :  FDEC;
  0000C3  :  039D;
  0000C4  :  0517;
  0000C5  :  FC26;
  0000C6  :  FB2B;
  0000C7  :  FE42;
  0000C8  :  FB48;
  0000C9  :  0203;
  0000CA  :  FBC8;
  0000CB  :  FCBF;
  0000CC  :  FBC5;
  0000CD  :  00D7;
  0000CE  :  00EA;
  0000CF  :  FA61;
  0000D0  :  FB66;
  0000D1  :  0014;
  0000D2  :  0385;
  0000D3  :  FDCE;
  0000D4  :  0069;
  0000D5  :  052A;
  0000D6  :  0431;
  0000D7  :  0200;
  0000D8  :  029A;
  0000D9  :  00E8;
  0000DA  :  02F6;
  0000DB  :  023A;
  0000DC  :  FF84;
  0000DD  :  FF01;
  0000DE  :  FFF9;
  0000DF  :  FCB8;
  0000E0  :  FEB0;
  0000E1  :  00F8;
  0000E2  :  0359;
  0000E3  :  03E8;
  0000E4  :  FC78;
  0000E5  :  FDA2;
  0000E6  :  04CA;
  0000E7  :  0511;
  0000E8  :  03A5;
  0000E9  :  0054;
  0000EA  :  FAE2;
  0000EB  :  FB91;
  0000EC  :  0251;
  0000ED  :  027F;
  0000EE  :  0544;
  0000EF  :  0437;
  0000F0  :  047E;
  0000F1  :  FCE1;
  0000F2  :  FFB5;
  0000F3  :  FC16;
  0000F4  :  0014;
  0000F5  :  FE9A;
  0000F6  :  FE2B;
  0000F7  :  0058;
  0000F8  :  011B;
  0000F9  :  FE03;
  0000FA  :  03A4;
  0000FB  :  FB43;
  0000FC  :  0312;
  0000FD  :  01AC;
  0000FE  :  FAEF;
  0000FF  :  FFDD;
  000100  :  01D6;
  000101  :  FFC1;
  000102  :  0366;
  000103  :  016D;
  000104  :  FBFB;
  000105  :  FD74;
  000106  :  04D3;
  000107  :  FF33;
  000108  :  01DE;
  000109  :  FF06;
  00010A  :  059E;
  00010B  :  02E7;
  00010C  :  FD16;
  00010D  :  01FB;
  00010E  :  FDD7;
  00010F  :  FE09;
  000110  :  045C;
  000111  :  00CF;
  000112  :  048B;
  000113  :  FE30;
  000114  :  0251;
  000115  :  05AF;
  000116  :  049B;
  000117  :  02E1;
  000118  :  FC28;
  000119  :  FF24;
  00011A  :  FBF0;
  00011B  :  0189;
  00011C  :  031B;
  00011D  :  FD25;
  00011E  :  0446;
  00011F  :  FDD4;
  000120  :  0232;
  000121  :  01B0;
  000122  :  FFBB;
  000123  :  0155;
  000124  :  05A4;
  000125  :  0214;
  000126  :  FA75;
  000127  :  0172;
  000128  :  0175;
  000129  :  01C5;
  00012A  :  FB46;
  00012B  :  0311;
  00012C  :  048C;
  00012D  :  0011;
  00012E  :  FCB4;
  00012F  :  0217;
  000130  :  027B;
  000131  :  FBE6;
  000132  :  FC90;
  000133  :  0122;
  000134  :  FB02;
  000135  :  01BA;
  000136  :  FF60;
  000137  :  02FE;
  000138  :  FDD2;
  000139  :  03B5;
  00013A  :  02C9;
  00013B  :  FFCA;
  00013C  :  FB83;
  00013D  :  0428;
  00013E  :  FF80;
  00013F  :  0161;
  000140  :  FAB3;
  000141  :  FB7F;
  000142  :  FEF8;
  000143  :  00E4;
  000144  :  FF5E;
  000145  :  FD72;
  000146  :  FF37;
  000147  :  FE28;
  000148  :  FBC8;
  000149  :  FAB0;
  00014A  :  015A;
  00014B  :  FD86;
  00014C  :  012D;
  00014D  :  035D;
  00014E  :  FE45;
  00014F  :  FE9C;
  000150  :  FD03;
  000151  :  FFDE;
  000152  :  FD73;
  000153  :  FA6E;
  000154  :  010E;
  000155  :  0221;
  000156  :  FCF6;
  000157  :  007F;
  000158  :  04AA;
  000159  :  FD99;
  00015A  :  FBB4;
  00015B  :  FCAC;
  00015C  :  FA5C;
  00015D  :  0554;
  00015E  :  FA63;
  00015F  :  0135;
  000160  :  FD74;
  000161  :  FD89;
  000162  :  040C;
  000163  :  FD9C;
  000164  :  FB85;
  000165  :  FE21;
  000166  :  051F;
  000167  :  033C;
  000168  :  FBFD;
  000169  :  054B;
  00016A  :  027E;
  00016B  :  FBE1;
  00016C  :  02E3;
  00016D  :  058F;
  00016E  :  FD3E;
  00016F  :  FD20;
  000170  :  FE3C;
  000171  :  FE05;
  000172  :  0223;
  000173  :  0564;
  000174  :  00C2;
  000175  :  02E2;
  000176  :  FF19;
  000177  :  044C;
  000178  :  FCB2;
  000179  :  FB5F;
  00017A  :  00AC;
  00017B  :  FFE4;
  00017C  :  FA97;
  00017D  :  FE40;
  00017E  :  FF6A;
  00017F  :  FDCD;
  000180  :  FB1C;
  000181  :  0253;
  000182  :  FE1E;
  000183  :  054C;
  000184  :  0496;
  000185  :  FFEB;
  000186  :  FDEF;
  000187  :  FB19;
  000188  :  044D;
  000189  :  FCD4;
  00018A  :  FF83;
  00018B  :  FD32;
  00018C  :  0283;
  00018D  :  0474;
  00018E  :  FEAE;
  00018F  :  0118;
  000190  :  FF43;
  000191  :  050A;
  000192  :  0360;
  000193  :  FAB0;
  000194  :  FDB8;
  000195  :  00DF;
  000196  :  00FB;
  000197  :  04CE;
  000198  :  03C6;
  000199  :  FA5E;
  00019A  :  FF11;
  00019B  :  FBD1;
  00019C  :  02A3;
  00019D  :  003D;
  00019E  :  FD3B;
  00019F  :  FC51;
  0001A0  :  0077;
  0001A1  :  FC9C;
  0001A2  :  FE55;
  0001A3  :  02FE;
  0001A4  :  FCE3;
  0001A5  :  04DC;
  0001A6  :  FDCA;
  0001A7  :  FD19;
  0001A8  :  FBA7;
  0001A9  :  FAB6;
  0001AA  :  FF8F;
  0001AB  :  FB55;
  0001AC  :  05A5;
  0001AD  :  FD90;
  0001AE  :  FE79;
  0001AF  :  FD6B;
  0001B0  :  010B;
  0001B1  :  0482;
  0001B2  :  FDE8;
  0001B3  :  04C9;
  0001B4  :  FB53;
  0001B5  :  0097;
  0001B6  :  03BE;
  0001B7  :  0118;
  0001B8  :  FDFE;
  0001B9  :  02C2;
  0001BA  :  0389;
  0001BB  :  0012;
  0001BC  :  0080;
  0001BD  :  02AE;
  0001BE  :  036B;
  0001BF  :  05E3;
  0001C0  :  FB3D;
  0001C1  :  FE06;
  0001C2  :  009D;
  0001C3  :  FDC0;
  0001C4  :  FBE7;
  0001C5  :  FA76;
  0001C6  :  00D8;
  0001C7  :  0511;
  0001C8  :  0065;
  0001C9  :  FFF7;
  0001CA  :  044A;
  0001CB  :  FEB6;
  0001CC  :  0393;
  0001CD  :  FC2B;
  0001CE  :  0130;
  0001CF  :  FCEF;
  0001D0  :  FCA2;
  0001D1  :  FAD7;
  0001D2  :  05BA;
  0001D3  :  0039;
  0001D4  :  FD8D;
  0001D5  :  FF20;
  0001D6  :  FCD4;
  0001D7  :  04E9;
  0001D8  :  0007;
  0001D9  :  02CB;
  0001DA  :  012D;
  0001DB  :  04FE;
  0001DC  :  03C8;
  0001DD  :  FC7B;
  0001DE  :  FDAC;
  0001DF  :  FCCE;
  0001E0  :  FF4E;
  0001E1  :  FDEB;
  0001E2  :  035F;
  0001E3  :  0112;
  0001E4  :  FD85;
  0001E5  :  FBB2;
  0001E6  :  0374;
  0001E7  :  FECD;
  0001E8  :  0501;
  0001E9  :  0255;
  0001EA  :  01B0;
  0001EB  :  00DE;
  0001EC  :  FC56;
  0001ED  :  FBDA;
  0001EE  :  00E5;
  0001EF  :  FF1C;
  0001F0  :  FC23;
  0001F1  :  0335;
  0001F2  :  02FE;
  0001F3  :  038E;
  0001F4  :  058C;
  0001F5  :  FCBD;
  0001F6  :  045C;
  0001F7  :  FD39;
  0001F8  :  01E5;
  0001F9  :  028A;
  0001FA  :  FB1B;
  0001FB  :  FDF1;
  0001FC  :  0348;
  0001FD  :  0063;
  0001FE  :  FED6;
  0001FF  :  0234;
  000200  :  0286;
  000201  :  04FE;
  000202  :  FC20;
  000203  :  FDAF;
  000204  :  0579;
  000205  :  FC33;
  000206  :  02E1;
  000207  :  04B2;
  000208  :  FFA7;
  000209  :  FFF5;
  00020A  :  FA1B;
  00020B  :  FB76;
  00020C  :  FC86;
  00020D  :  058F;
  00020E  :  0500;
  00020F  :  FF4C;
  000210  :  0284;
  000211  :  FA7C;
  000212  :  FE29;
  000213  :  FD80;
  000214  :  0595;
  000215  :  FCEE;
  000216  :  FB6F;
  000217  :  02F0;
  000218  :  0430;
  000219  :  00E2;
  00021A  :  FDE9;
  00021B  :  0216;
  00021C  :  0063;
  00021D  :  01E7;
  00021E  :  FE0D;
  00021F  :  02D0;
  000220  :  00D1;
  000221  :  FE36;
  000222  :  FC9D;
  000223  :  FB38;
  000224  :  FF68;
  000225  :  FE8F;
  000226  :  00EE;
  000227  :  FF91;
  000228  :  02F0;
  000229  :  0477;
  00022A  :  FD11;
  00022B  :  FB69;
  00022C  :  FA86;
  00022D  :  FC54;
  00022E  :  FE05;
  00022F  :  00A7;
  000230  :  FB4B;
  000231  :  FDC7;
  000232  :  0266;
  000233  :  02A6;
  000234  :  0559;
  000235  :  0511;
  000236  :  FF79;
  000237  :  FE35;
  000238  :  FABA;
  000239  :  021D;
  00023A  :  04ED;
  00023B  :  FB01;
  00023C  :  FD35;
  00023D  :  FEF3;
  00023E  :  FB0A;
  00023F  :  FD28;
  000240  :  0348;
  000241  :  0405;
  000242  :  001F;
  000243  :  031E;
  000244  :  FD09;
  000245  :  FF64;
  000246  :  FA7B;
  000247  :  02CE;
  000248  :  FC5B;
  000249  :  FC51;
  00024A  :  FBC8;
  00024B  :  0385;
  00024C  :  FCC7;
  00024D  :  FFF8;
  00024E  :  04BD;
  00024F  :  FCDB;
  000250  :  FC7A;
  000251  :  FE7F;
  000252  :  FD7D;
  000253  :  FE80;
  000254  :  FA50;
  000255  :  FE15;
  000256  :  FCB3;
  000257  :  03A9;
  000258  :  FF83;
  000259  :  0066;
  00025A  :  FF90;
  00025B  :  04F1;
  00025C  :  FE73;
  00025D  :  0280;
  00025E  :  00F8;
  00025F  :  FC78;
  000260  :  FB8F;
  000261  :  FC00;
  000262  :  FBF4;
  000263  :  0340;
  000264  :  FC90;
  000265  :  FFEC;
  000266  :  FFE7;
  000267  :  FE92;
  000268  :  FEA5;
  000269  :  028E;
  00026A  :  0138;
  00026B  :  0042;
  00026C  :  FE84;
  00026D  :  FD1A;
  00026E  :  FFC4;
  00026F  :  00D3;
  000270  :  FCBD;
  000271  :  0185;
  000272  :  FD1E;
  000273  :  FB20;
  000274  :  044A;
  000275  :  03A9;
  000276  :  01BD;
  000277  :  FF99;
  000278  :  019C;
  000279  :  FDC6;
  00027A  :  FBEE;
  00027B  :  00CD;
  00027C  :  03AA;
  00027D  :  030E;
  00027E  :  FE4A;
  00027F  :  03C6;
  000280  :  0554;
  000281  :  FD0C;
  000282  :  000E;
  000283  :  0352;
  000284  :  00A6;
  000285  :  03E5;
  000286  :  04C6;
  000287  :  FA6E;
  000288  :  FB18;
  000289  :  0175;
  00028A  :  FD45;
  00028B  :  FDA7;
  00028C  :  FC43;
  00028D  :  FB89;
  00028E  :  FDCE;
  00028F  :  FA5F;
  000290  :  FDD8;
  000291  :  FD2A;
  000292  :  FA72;
  000293  :  FD64;
  000294  :  FACE;
  000295  :  0595;
  000296  :  0461;
  000297  :  057D;
  000298  :  FE3D;
  000299  :  001F;
  00029A  :  FC07;
  00029B  :  01DD;
  00029C  :  FBF6;
  00029D  :  FB4D;
  00029E  :  0273;
  00029F  :  0410;
  0002A0  :  FC9E;
  0002A1  :  0317;
  0002A2  :  FEF7;
  0002A3  :  00DF;
  0002A4  :  0427;
  0002A5  :  0059;
  0002A6  :  0358;
  0002A7  :  04FC;
  0002A8  :  01FD;
  0002A9  :  FF00;
  0002AA  :  01DE;
  0002AB  :  0274;
  0002AC  :  FF41;
  0002AD  :  0426;
  0002AE  :  0474;
  0002AF  :  FD69;
  0002B0  :  FCB3;
  0002B1  :  04E3;
  0002B2  :  0336;
  0002B3  :  FECB;
  0002B4  :  009C;
  0002B5  :  FDE5;
  0002B6  :  FFAE;
  0002B7  :  0558;
  0002B8  :  0455;
  0002B9  :  00C8;
  0002BA  :  018B;
  0002BB  :  FCAF;
  0002BC  :  02AE;
  0002BD  :  0314;
  0002BE  :  0178;
  0002BF  :  01D7;
  0002C0  :  FE32;
  0002C1  :  FD4E;
  0002C2  :  01E6;
  0002C3  :  013D;
  0002C4  :  02A6;
  0002C5  :  0436;
  0002C6  :  0265;
  0002C7  :  0573;
  0002C8  :  FC26;
  0002C9  :  01F7;
  0002CA  :  FD1D;
  0002CB  :  0548;
  0002CC  :  0163;
  0002CD  :  0230;
  0002CE  :  FF4F;
  0002CF  :  029C;
  0002D0  :  03DA;
  0002D1  :  04A0;
  0002D2  :  009D;
  0002D3  :  FC06;
  0002D4  :  0003;
  0002D5  :  FC4D;
  0002D6  :  008E;
  0002D7  :  0104;
  0002D8  :  029C;
  0002D9  :  0375;
  0002DA  :  038C;
  0002DB  :  02B6;
  0002DC  :  FF28;
  0002DD  :  0554;
  0002DE  :  FC97;
  0002DF  :  FB5A;
  0002E0  :  007D;
  0002E1  :  FB1C;
  0002E2  :  FDDD;
  0002E3  :  025F;
  0002E4  :  FE7C;
  0002E5  :  0015;
  0002E6  :  0173;
  0002E7  :  04FD;
  0002E8  :  0205;
  0002E9  :  FC2E;
  0002EA  :  0566;
  0002EB  :  FC9D;
  0002EC  :  013A;
  0002ED  :  015C;
  0002EE  :  FF88;
  0002EF  :  FCE7;
  0002F0  :  0143;
  0002F1  :  FE29;
  0002F2  :  FC60;
  0002F3  :  03EA;
  0002F4  :  01A0;
  0002F5  :  03C6;
  0002F6  :  0257;
  0002F7  :  003B;
  0002F8  :  04E1;
  0002F9  :  FCC6;
  0002FA  :  FEBC;
  0002FB  :  FD77;
  0002FC  :  FD6D;
  0002FD  :  02D7;
  0002FE  :  0350;
  0002FF  :  0521;
  000300  :  FB44;
  000301  :  FE51;
  000302  :  FFEE;
  000303  :  FDE9;
  000304  :  FFFF;
  000305  :  FC93;
  000306  :  03A3;
  000307  :  0490;
  000308  :  FE35;
  000309  :  0122;
  00030A  :  0122;
  00030B  :  FDA9;
  00030C  :  FEC6;
  00030D  :  05BC;
  00030E  :  FCF5;
  00030F  :  01FF;
  000310  :  0038;
  000311  :  0442;
  000312  :  0469;
  000313  :  FC17;
  000314  :  0489;
  000315  :  0298;
  000316  :  011A;
  000317  :  FDBC;
  000318  :  0168;
  000319  :  03BD;
  00031A  :  00F2;
  00031B  :  FA7A;
  00031C  :  02F1;
  00031D  :  01A8;
  00031E  :  FACA;
  00031F  :  041E;
  000320  :  FAFA;
  000321  :  02E6;
  000322  :  FC4E;
  000323  :  FF77;
  000324  :  FBB5;
  000325  :  02AE;
  000326  :  FDAB;
  000327  :  FE41;
  000328  :  FD21;
  000329  :  FE61;
  00032A  :  FAF2;
  00032B  :  FD9A;
  00032C  :  054B;
  00032D  :  006E;
  00032E  :  FFA9;
  00032F  :  0087;
  000330  :  0375;
  000331  :  019E;
  000332  :  FE0B;
  000333  :  0585;
  000334  :  0558;
  000335  :  FC98;
  000336  :  007B;
  000337  :  0069;
  000338  :  0480;
  000339  :  0057;
  00033A  :  FC99;
  00033B  :  FADC;
  00033C  :  0508;
  00033D  :  024C;
  00033E  :  FD55;
  00033F  :  FC16;
  000340  :  0344;
  000341  :  04C9;
  000342  :  0055;
  000343  :  FDFB;
  000344  :  055F;
  000345  :  FE91;
  000346  :  FA8A;
  000347  :  FE63;
  000348  :  0148;
  000349  :  FB83;
  00034A  :  00B7;
  00034B  :  028B;
  00034C  :  0590;
  00034D  :  FC92;
  00034E  :  0078;
  00034F  :  042C;
  000350  :  FDD5;
  000351  :  02EB;
  000352  :  0352;
  000353  :  FC51;
  000354  :  0379;
  000355  :  00C2;
  000356  :  0127;
  000357  :  FEE8;
  000358  :  018E;
  000359  :  FDD5;
  00035A  :  FF3B;
  00035B  :  0228;
  00035C  :  0185;
  00035D  :  FC2E;
  00035E  :  FF8E;
  00035F  :  009F;
  000360  :  FCD5;
  000361  :  046A;
  000362  :  FD87;
  000363  :  00B8;
  000364  :  0321;
  000365  :  0017;
  000366  :  FF86;
  000367  :  017C;
  000368  :  0013;
  000369  :  04A7;
  00036A  :  0147;
  00036B  :  0060;
  00036C  :  0336;
  00036D  :  FDE2;
  00036E  :  0136;
  00036F  :  0114;
  000370  :  00BC;
  000371  :  0279;
  000372  :  FBA3;
  000373  :  FEDA;
  000374  :  00AA;
  000375  :  FA9E;
  000376  :  FD2C;
  000377  :  0218;
  000378  :  FD18;
  000379  :  0473;
  00037A  :  00C4;
  00037B  :  FDC7;
  00037C  :  021D;
  00037D  :  FEDC;
  00037E  :  00AE;
  00037F  :  0159;
  000380  :  044D;
  000381  :  FE79;
  000382  :  0166;
  000383  :  006E;
  000384  :  0049;
  000385  :  0081;
  000386  :  010C;
  000387  :  01A1;
  000388  :  0242;
  000389  :  FFE2;
  00038A  :  FE01;
  00038B  :  FC07;
  00038C  :  0206;
  00038D  :  0285;
  00038E  :  00F1;
  00038F  :  FB42;
  000390  :  01AF;
  000391  :  0478;
  000392  :  02F9;
  000393  :  0083;
  000394  :  FBE0;
  000395  :  0000;
  000396  :  04F9;
  000397  :  04B3;
  000398  :  036A;
  000399  :  029E;
  00039A  :  FE9D;
  00039B  :  FEC8;
  00039C  :  FE5D;
  00039D  :  027E;
  00039E  :  055A;
  00039F  :  0447;
  0003A0  :  FF8B;
  0003A1  :  FC0D;
  0003A2  :  FC11;
  0003A3  :  FCFC;
  0003A4  :  FBA3;
  0003A5  :  FB30;
  0003A6  :  03AD;
  0003A7  :  03D2;
  0003A8  :  0167;
  0003A9  :  FF44;
  0003AA  :  03B1;
  0003AB  :  FD25;
  0003AC  :  0336;
  0003AD  :  FD7F;
  0003AE  :  FD5F;
  0003AF  :  FB95;
  0003B0  :  004F;
  0003B1  :  FBA1;
  0003B2  :  FECD;
  0003B3  :  0304;
  0003B4  :  01E0;
  0003B5  :  004A;
  0003B6  :  FBC3;
  0003B7  :  FDC7;
  0003B8  :  03A4;
  0003B9  :  049E;
  0003BA  :  FB3D;
  0003BB  :  003E;
  0003BC  :  03CA;
  0003BD  :  0090;
  0003BE  :  03C2;
  0003BF  :  FFCC;
  0003C0  :  039E;
  0003C1  :  FDE6;
  0003C2  :  0257;
  0003C3  :  0316;
  0003C4  :  050D;
  0003C5  :  FF4D;
  0003C6  :  FE28;
  0003C7  :  032D;
  0003C8  :  FFAD;
  0003C9  :  0517;
  0003CA  :  FF15;
  0003CB  :  FE0C;
  0003CC  :  01A4;
  0003CD  :  0139;
  0003CE  :  0482;
  0003CF  :  FCE9;
  0003D0  :  FE55;
  0003D1  :  020F;
  0003D2  :  FDB4;
  0003D3  :  FEB2;
  0003D4  :  0517;
  0003D5  :  FFA8;
  0003D6  :  FA64;
  0003D7  :  0521;
  0003D8  :  FC0A;
  0003D9  :  0115;
  0003DA  :  FE60;
  0003DB  :  0485;
  0003DC  :  03D5;
  0003DD  :  FF7E;
  0003DE  :  FF23;
  0003DF  :  FDE6;
  0003E0  :  FD44;
  0003E1  :  03DA;
  0003E2  :  FD51;
  0003E3  :  04D0;
  0003E4  :  FB8A;
  0003E5  :  04D0;
  0003E6  :  0284;
  0003E7  :  0494;
  0003E8  :  FF43;
  0003E9  :  FC32;
  0003EA  :  04DD;
  0003EB  :  FD9D;
  0003EC  :  FE20;
  0003ED  :  00AD;
  0003EE  :  0336;
  0003EF  :  0442;
  0003F0  :  051C;
  0003F1  :  FBEF;
  0003F2  :  00B3;
  0003F3  :  FDF8;
  0003F4  :  FD0D;
  0003F5  :  FD0A;
  0003F6  :  FD28;
  0003F7  :  FCD0;
  0003F8  :  FB20;
  0003F9  :  FA77;
  0003FA  :  03CA;
  0003FB  :  020D;
  0003FC  :  FE51;
  0003FD  :  041E;
  0003FE  :  0399;
  0003FF  :  036E;
  000400  :  FE8D;
  000401  :  00C0;
  000402  :  04D7;
  000403  :  FEAB;
  000404  :  FB21;
  000405  :  0354;
  000406  :  01F1;
  000407  :  FA85;
  000408  :  FEEC;
  000409  :  05B9;
  00040A  :  0003;
  00040B  :  FCD4;
  00040C  :  FD92;
  00040D  :  FB99;
  00040E  :  02C6;
  00040F  :  050B;
  000410  :  0126;
  000411  :  0161;
  000412  :  FCBD;
  000413  :  FF2A;
  000414  :  0064;
  000415  :  01D6;
  000416  :  0547;
  000417  :  0095;
  000418  :  0252;
  000419  :  0103;
  00041A  :  0312;
  00041B  :  FF7B;
  00041C  :  0225;
  00041D  :  FC5F;
  00041E  :  FE72;
  00041F  :  058E;
  000420  :  0495;
  000421  :  007E;
  000422  :  FF18;
  000423  :  054A;
  000424  :  0052;
  000425  :  FDEE;
  000426  :  0542;
  000427  :  FC37;
  000428  :  FDAC;
  000429  :  04F8;
  00042A  :  034E;
  00042B  :  FE71;
  00042C  :  FCEB;
  00042D  :  03B0;
  00042E  :  053C;
  00042F  :  0316;
  000430  :  0407;
  000431  :  0269;
  000432  :  FE75;
  000433  :  FFEE;
  000434  :  FFC6;
  000435  :  012F;
  000436  :  0148;
  000437  :  0455;
  000438  :  FE1C;
  000439  :  FC34;
  00043A  :  01AF;
  00043B  :  0155;
  00043C  :  FE85;
  00043D  :  FD42;
  00043E  :  FE10;
  00043F  :  01EF;
  000440  :  FF18;
  000441  :  0473;
  000442  :  04BF;
  000443  :  FAB6;
  000444  :  00EE;
  000445  :  FD08;
  000446  :  0367;
  000447  :  059E;
  000448  :  031B;
  000449  :  024B;
  00044A  :  FCBF;
  00044B  :  029B;
  00044C  :  FC89;
  00044D  :  FE59;
  00044E  :  FD29;
  00044F  :  039F;
  000450  :  03D9;
  000451  :  01B9;
  000452  :  04A4;
  000453  :  FD6D;
  000454  :  0347;
  000455  :  FA79;
  000456  :  FE29;
  000457  :  0060;
  000458  :  00B4;
  000459  :  FF77;
  00045A  :  FF86;
  00045B  :  015C;
  00045C  :  FD95;
  00045D  :  FCD3;
  00045E  :  FF3D;
  00045F  :  FE20;
  000460  :  FF09;
  000461  :  03C2;
  000462  :  02EF;
  000463  :  FD0C;
  000464  :  053E;
  000465  :  04EB;
  000466  :  FADA;
  000467  :  0160;
  000468  :  FBC3;
  000469  :  FB29;
  00046A  :  0412;
  00046B  :  FB4D;
  00046C  :  020D;
  00046D  :  FB30;
  00046E  :  FD7E;
  00046F  :  FB62;
  000470  :  FAE0;
  000471  :  FB06;
  000472  :  FE2B;
  000473  :  0113;
  000474  :  FD50;
  000475  :  FCAA;
  000476  :  FBDD;
  000477  :  01D6;
  000478  :  03C3;
  000479  :  FCB9;
  00047A  :  01F6;
  00047B  :  FDB3;
  00047C  :  0294;
  00047D  :  FAC3;
  00047E  :  027D;
  00047F  :  FD1F;
  000480  :  00B9;
  000481  :  FDD4;
  000482  :  FF1C;
  000483  :  FAC6;
  000484  :  0450;
  000485  :  FD0D;
  000486  :  0096;
  000487  :  FFC4;
  000488  :  FF8C;
  000489  :  0105;
  00048A  :  FAA2;
  00048B  :  FE2C;
  00048C  :  FC86;
  00048D  :  017D;
  00048E  :  FE73;
  00048F  :  FB95;
  000490  :  048A;
  000491  :  0506;
  000492  :  0073;
  000493  :  01F9;
  000494  :  01F9;
  000495  :  02E6;
  000496  :  FFFD;
  000497  :  FC01;
  000498  :  FF96;
  000499  :  FAD6;
  00049A  :  FC11;
  00049B  :  05BE;
  00049C  :  FAF4;
  00049D  :  054A;
  00049E  :  059D;
  00049F  :  0167;
  0004A0  :  FF4B;
  0004A1  :  FFBD;
  0004A2  :  FE2A;
  0004A3  :  0021;
  0004A4  :  FD3A;
  0004A5  :  FDE3;
  0004A6  :  FB67;
  0004A7  :  FB74;
  0004A8  :  FF17;
  0004A9  :  04B9;
  0004AA  :  0287;
  0004AB  :  FA4A;
  0004AC  :  FFDF;
  0004AD  :  FA89;
  0004AE  :  02EA;
  0004AF  :  FE6B;
  0004B0  :  050F;
  0004B1  :  05B7;
  0004B2  :  0010;
  0004B3  :  0006;
  0004B4  :  FF1B;
  0004B5  :  FE92;
  0004B6  :  0365;
  0004B7  :  FAC0;
  0004B8  :  FF47;
  0004B9  :  FD07;
  0004BA  :  FE45;
  0004BB  :  0241;
  0004BC  :  FD6D;
  0004BD  :  008A;
  0004BE  :  00C8;
  0004BF  :  FB80;
  0004C0  :  FFA6;
  0004C1  :  0462;
  0004C2  :  FF66;
  0004C3  :  FCE6;
  0004C4  :  FEF7;
  0004C5  :  0397;
  0004C6  :  04F4;
  0004C7  :  FB09;
  0004C8  :  01DB;
  0004C9  :  FCFC;
  0004CA  :  FED9;
  0004CB  :  0534;
  0004CC  :  0586;
  0004CD  :  01EC;
  0004CE  :  FDFB;
  0004CF  :  0126;
  0004D0  :  FBEF;
  0004D1  :  013A;
  0004D2  :  FDAD;
  0004D3  :  0418;
  0004D4  :  FBA3;
  0004D5  :  FD65;
  0004D6  :  FD52;
  0004D7  :  0239;
  0004D8  :  027B;
  0004D9  :  0046;
  0004DA  :  02B9;
  0004DB  :  00C1;
  0004DC  :  005B;
  0004DD  :  FC48;
  0004DE  :  0585;
  0004DF  :  008C;
  0004E0  :  020A;
  0004E1  :  0046;
  0004E2  :  FB41;
  0004E3  :  FED6;
  0004E4  :  0008;
  0004E5  :  FDC2;
  0004E6  :  FF95;
  0004E7  :  FEB9;
  0004E8  :  FEA2;
  0004E9  :  0138;
  0004EA  :  011E;
  0004EB  :  05B2;
  0004EC  :  FCB1;
  0004ED  :  00AA;
  0004EE  :  03CB;
  0004EF  :  0332;
  0004F0  :  0118;
  0004F1  :  0034;
  0004F2  :  01CB;
  0004F3  :  01F4;
  0004F4  :  0322;
  0004F5  :  FFE0;
  0004F6  :  0043;
  0004F7  :  0597;
  0004F8  :  FEAD;
  0004F9  :  FCE5;
  0004FA  :  0187;
  0004FB  :  029F;
  0004FC  :  04EE;
  0004FD  :  FC03;
  0004FE  :  FFB3;
  0004FF  :  FD1C;
  000500  :  0313;
  000501  :  0179;
  000502  :  02AD;
  000503  :  FD8F;
  000504  :  0586;
  000505  :  008E;
  000506  :  FE85;
  000507  :  FE4B;
  000508  :  038E;
  000509  :  FB54;
  00050A  :  FC76;
  00050B  :  FD92;
  00050C  :  028B;
  00050D  :  03D9;
  00050E  :  FA47;
  00050F  :  0568;
  000510  :  02A4;
  000511  :  033F;
  000512  :  FC7A;
  000513  :  FD90;
  000514  :  FC42;
  000515  :  0020;
  000516  :  050D;
  000517  :  0438;
  000518  :  0479;
  000519  :  0320;
  00051A  :  04AC;
  00051B  :  01F9;
  00051C  :  01B5;
  00051D  :  FACE;
  00051E  :  FF1A;
  00051F  :  FB22;
  000520  :  0300;
  000521  :  0284;
  000522  :  FE6B;
  000523  :  FC87;
  000524  :  FF7A;
  000525  :  FE34;
  000526  :  FE71;
  000527  :  0064;
  000528  :  FB01;
  000529  :  FD00;
  00052A  :  FE8E;
  00052B  :  0431;
  00052C  :  006E;
  00052D  :  FD13;
  00052E  :  FEE6;
  00052F  :  FF0A;
  000530  :  FB9C;
  000531  :  04E2;
  000532  :  0459;
  000533  :  03CF;
  000534  :  03E9;
  000535  :  FD8E;
  000536  :  FD94;
  000537  :  0295;
  000538  :  FFD1;
  000539  :  008C;
  00053A  :  FD39;
  00053B  :  01AE;
  00053C  :  FC92;
  00053D  :  FC56;
  00053E  :  0095;
  00053F  :  FD6A;
  000540  :  04E3;
  000541  :  FB92;
  000542  :  FD26;
  000543  :  0489;
  000544  :  0440;
  000545  :  FB89;
  000546  :  FE4C;
  000547  :  0344;
  000548  :  02F5;
  000549  :  0312;
  00054A  :  FC06;
  00054B  :  FAF7;
  00054C  :  FDF7;
  00054D  :  017A;
  00054E  :  0340;
  00054F  :  FF1B;
  000550  :  FBF2;
  000551  :  04E0;
  000552  :  FEB8;
  000553  :  0552;
  000554  :  0313;
  000555  :  FD0F;
  000556  :  0416;
  000557  :  0384;
  000558  :  FE55;
  000559  :  FBB0;
  00055A  :  FE6A;
  00055B  :  0476;
  00055C  :  049F;
  00055D  :  FB38;
  00055E  :  FBB0;
  00055F  :  03F7;
  000560  :  0241;
  000561  :  0255;
  000562  :  FC31;
  000563  :  FE31;
  000564  :  017A;
  000565  :  FDE5;
  000566  :  FE4B;
  000567  :  0562;
  000568  :  0207;
  000569  :  FD92;
  00056A  :  FFA6;
  00056B  :  0451;
  00056C  :  01AC;
  00056D  :  0206;
  00056E  :  FD03;
  00056F  :  02CE;
  000570  :  0351;
  000571  :  0181;
  000572  :  051F;
  000573  :  FDD5;
  000574  :  FB80;
  000575  :  FA69;
  000576  :  FC83;
  000577  :  FB8F;
  000578  :  FF6E;
  000579  :  FD1C;
  00057A  :  FEA2;
  00057B  :  FB87;
  00057C  :  01E8;
  00057D  :  FC86;
  00057E  :  FE9D;
  00057F  :  01A8;
  000580  :  FF5F;
  000581  :  00E8;
  000582  :  FBFE;
  000583  :  0360;
  000584  :  0526;
  000585  :  00AC;
  000586  :  FFDD;
  000587  :  02F9;
  000588  :  053A;
  000589  :  00E4;
  00058A  :  0006;
  00058B  :  FE4F;
  00058C  :  FF9A;
  00058D  :  0454;
  00058E  :  FEC9;
  00058F  :  FC40;
  000590  :  FB13;
  000591  :  0569;
  000592  :  046C;
  000593  :  043B;
  000594  :  FD8A;
  000595  :  FDA4;
  000596  :  FFA8;
  000597  :  FA95;
  000598  :  0052;
  000599  :  03F0;
  00059A  :  FC35;
  00059B  :  04F2;
  00059C  :  FE41;
  00059D  :  FA91;
  00059E  :  FAFB;
  00059F  :  038F;
  0005A0  :  FE98;
  0005A1  :  03B9;
  0005A2  :  FCC6;
  0005A3  :  FC88;
  0005A4  :  FD92;
  0005A5  :  FC41;
  0005A6  :  0393;
  0005A7  :  04CC;
  0005A8  :  02DE;
  0005A9  :  050E;
  0005AA  :  047F;
  0005AB  :  03F2;
  0005AC  :  02D2;
  0005AD  :  01F0;
  0005AE  :  FECE;
  0005AF  :  FF8E;
  0005B0  :  FCBE;
  0005B1  :  FCF7;
  0005B2  :  0196;
  0005B3  :  FAFB;
  0005B4  :  018F;
  0005B5  :  011D;
  0005B6  :  028F;
  0005B7  :  FBE4;
  0005B8  :  0208;
  0005B9  :  058A;
  0005BA  :  FB44;
  0005BB  :  0487;
  0005BC  :  FD1C;
  0005BD  :  024E;
  0005BE  :  0590;
  0005BF  :  042C;
  0005C0  :  0183;
  0005C1  :  FD59;
  0005C2  :  FF4D;
  0005C3  :  FDE1;
  0005C4  :  0198;
  0005C5  :  FF8A;
  0005C6  :  0194;
  0005C7  :  0084;
  0005C8  :  05A0;
  0005C9  :  FC53;
  0005CA  :  FCF5;
  0005CB  :  FDCD;
  0005CC  :  FE4E;
  0005CD  :  0232;
  0005CE  :  FEE1;
  0005CF  :  FB3C;
  0005D0  :  0149;
  0005D1  :  03D8;
  0005D2  :  028E;
  0005D3  :  FB1A;
  0005D4  :  FB05;
  0005D5  :  FC4E;
  0005D6  :  0033;
  0005D7  :  0270;
  0005D8  :  FE8D;
  0005D9  :  FADD;
  0005DA  :  FB4D;
  0005DB  :  05D6;
  0005DC  :  FF7E;
  0005DD  :  04C6;
  0005DE  :  FFFA;
  0005DF  :  FA71;
  0005E0  :  029F;
  0005E1  :  02C7;
  0005E2  :  024A;
  0005E3  :  FD17;
  0005E4  :  FC8D;
  0005E5  :  02BA;
  0005E6  :  0060;
  0005E7  :  0512;
  0005E8  :  005D;
  0005E9  :  FF8D;
  0005EA  :  0584;
  0005EB  :  FAB4;
  0005EC  :  FD59;
  0005ED  :  0038;
  0005EE  :  027A;
  0005EF  :  FC8B;
  0005F0  :  0595;
  0005F1  :  FCF0;
  0005F2  :  FD78;
  0005F3  :  058F;
  0005F4  :  FC36;
  0005F5  :  05EB;
  0005F6  :  FAE3;
  0005F7  :  022C;
  0005F8  :  FCCE;
  0005F9  :  01DC;
  0005FA  :  0021;
  0005FB  :  0562;
  0005FC  :  FFEB;
  0005FD  :  FBEA;
  0005FE  :  02F1;
  0005FF  :  0160;
  000600  :  FFC5;
  000601  :  0142;
  000602  :  FAAC;
  000603  :  FB63;
  000604  :  FB43;
  000605  :  FD11;
  000606  :  FAF1;
  000607  :  FB69;
  000608  :  FD41;
  000609  :  036D;
  00060A  :  012D;
  00060B  :  FE24;
  00060C  :  FBCC;
  00060D  :  FA6E;
  00060E  :  024D;
  00060F  :  03CD;
  000610  :  00B5;
  000611  :  FEE1;
  000612  :  0481;
  000613  :  FF9D;
  000614  :  FBC3;
  000615  :  FB4D;
  000616  :  04E5;
  000617  :  FC62;
  000618  :  006A;
  000619  :  FC02;
  00061A  :  FAA0;
  00061B  :  FB25;
  00061C  :  FC7E;
  00061D  :  FDCC;
  00061E  :  000B;
  00061F  :  FDA2;
  000620  :  FC2F;
  000621  :  FD36;
  000622  :  FF1F;
  000623  :  0394;
  000624  :  FAA5;
  000625  :  FBCF;
  000626  :  0104;
  000627  :  00E1;
  000628  :  04CF;
  000629  :  0409;
  00062A  :  05B7;
  00062B  :  FF4B;
  00062C  :  FB07;
  00062D  :  0580;
  00062E  :  FC05;
  00062F  :  FC49;
  000630  :  0373;
  000631  :  FD08;
  000632  :  0022;
  000633  :  0111;
  000634  :  FC43;
  000635  :  04F2;
  000636  :  FAF5;
  000637  :  FB3D;
  000638  :  FFC8;
  000639  :  0305;
  00063A  :  FE19;
  00063B  :  0341;
  00063C  :  FD5E;
  00063D  :  0212;
  00063E  :  0101;
  00063F  :  FDD3;
  000640  :  FEAF;
  000641  :  FB9B;
  000642  :  0379;
  000643  :  FD60;
  000644  :  03BF;
  000645  :  0094;
  000646  :  00E4;
  000647  :  FAD4;
  000648  :  031B;
  000649  :  FEE0;
  00064A  :  FB81;
  00064B  :  01C3;
  00064C  :  FD95;
  00064D  :  FE80;
  00064E  :  0453;
  00064F  :  0137;
  000650  :  FCEC;
  000651  :  FCF7;
  000652  :  FCB0;
  000653  :  0217;
  000654  :  FE22;
  000655  :  FF8E;
  000656  :  016B;
  000657  :  FD03;
  000658  :  00BA;
  000659  :  03C3;
  00065A  :  FC37;
  00065B  :  FFA6;
  00065C  :  FD97;
  00065D  :  FDDD;
  00065E  :  017A;
  00065F  :  FEED;
  000660  :  FC00;
  000661  :  FAFD;
  000662  :  034A;
  000663  :  04D8;
  000664  :  0604;
  000665  :  01D3;
  000666  :  FC9C;
  000667  :  FEA5;
  000668  :  FD1F;
  000669  :  04A7;
  00066A  :  FD92;
  00066B  :  FF7F;
  00066C  :  03E5;
  00066D  :  FE51;
  00066E  :  FF0D;
  00066F  :  FCDE;
  000670  :  FAE7;
  000671  :  02D2;
  000672  :  03DA;
  000673  :  00A5;
  000674  :  FFB2;
  000675  :  050E;
  000676  :  FFE3;
  000677  :  FDD1;
  000678  :  FB38;
  000679  :  011B;
  00067A  :  FB5B;
  00067B  :  0112;
  00067C  :  FDCB;
  00067D  :  FB49;
  00067E  :  FB8D;
  00067F  :  00FA;
  000680  :  01F4;
  000681  :  03DD;
  000682  :  0542;
  000683  :  02E6;
  000684  :  025F;
  000685  :  0241;
  000686  :  FD27;
  000687  :  048D;
  000688  :  FF6A;
  000689  :  FA59;
  00068A  :  FD08;
  00068B  :  0440;
  00068C  :  FE5B;
  00068D  :  FD0A;
  00068E  :  FADB;
  00068F  :  FB96;
  000690  :  FFDB;
  000691  :  FC4E;
  000692  :  FA4C;
  000693  :  0480;
  000694  :  02EA;
  000695  :  FD3D;
  000696  :  FD1F;
  000697  :  FCDB;
  000698  :  02BA;
  000699  :  FECA;
  00069A  :  03F1;
  00069B  :  FC60;
  00069C  :  FEE5;
  00069D  :  FD70;
  00069E  :  FCAE;
  00069F  :  FA8B;
  0006A0  :  FE15;
  0006A1  :  00D3;
  0006A2  :  051E;
  0006A3  :  FA6D;
  0006A4  :  FC32;
  0006A5  :  FFC6;
  0006A6  :  0089;
  0006A7  :  04B9;
  0006A8  :  FE47;
  0006A9  :  FBBE;
  0006AA  :  00F2;
  0006AB  :  FF8C;
  0006AC  :  0423;
  0006AD  :  0418;
  0006AE  :  04A9;
  0006AF  :  034C;
  0006B0  :  00A8;
  0006B1  :  055B;
  0006B2  :  FEA9;
  0006B3  :  0241;
  0006B4  :  FB92;
  0006B5  :  0058;
  0006B6  :  FCF8;
  0006B7  :  FBE9;
  0006B8  :  0018;
  0006B9  :  0450;
  0006BA  :  FB38;
  0006BB  :  0539;
  0006BC  :  FBD0;
  0006BD  :  FF23;
  0006BE  :  0596;
  0006BF  :  FF4A;
  0006C0  :  0366;
  0006C1  :  03EA;
  0006C2  :  0090;
  0006C3  :  0134;
  0006C4  :  040D;
  0006C5  :  0300;
  0006C6  :  02BD;
  0006C7  :  0021;
  0006C8  :  0273;
  0006C9  :  000A;
  0006CA  :  FEC8;
  0006CB  :  FB0A;
  0006CC  :  FA9E;
  0006CD  :  FBCA;
  0006CE  :  056F;
  0006CF  :  FF22;
  0006D0  :  0184;
  0006D1  :  04CF;
  0006D2  :  FA9E;
  0006D3  :  FFD2;
  0006D4  :  03D4;
  0006D5  :  0274;
  0006D6  :  0051;
  0006D7  :  051B;
  0006D8  :  FEF2;
  0006D9  :  03B5;
  0006DA  :  01B8;
  0006DB  :  05A4;
  0006DC  :  FCE4;
  0006DD  :  FB77;
  0006DE  :  FF70;
  0006DF  :  03C1;
  0006E0  :  0263;
  0006E1  :  017A;
  0006E2  :  0254;
  0006E3  :  059C;
  0006E4  :  01ED;
  0006E5  :  FC03;
  0006E6  :  0119;
  0006E7  :  FDB5;
  0006E8  :  00B7;
  0006E9  :  FD6E;
  0006EA  :  FEC5;
  0006EB  :  FE54;
  0006EC  :  0067;
  0006ED  :  02F2;
  0006EE  :  FAAB;
  0006EF  :  0086;
  0006F0  :  FC43;
  0006F1  :  FC64;
  0006F2  :  049E;
  0006F3  :  0102;
  0006F4  :  03B5;
  0006F5  :  019C;
  0006F6  :  0061;
  0006F7  :  FBEE;
  0006F8  :  FD3E;
  0006F9  :  028E;
  0006FA  :  0089;
  0006FB  :  04DA;
  0006FC  :  FDBE;
  0006FD  :  FC62;
  0006FE  :  FCC2;
  0006FF  :  FD81;
  000700  :  045C;
  000701  :  FE64;
  000702  :  FE27;
  000703  :  FC18;
  000704  :  FEB3;
  000705  :  02D6;
  000706  :  FC2C;
  000707  :  0495;
  000708  :  FA87;
  000709  :  FBD8;
  00070A  :  FB76;
  00070B  :  FFBA;
  00070C  :  FE74;
  00070D  :  FDC8;
  00070E  :  01B7;
  00070F  :  04C8;
  000710  :  FCA1;
  000711  :  0114;
  000712  :  0596;
  000713  :  FBA8;
  000714  :  FCDA;
  000715  :  FB64;
  000716  :  FB4B;
  000717  :  FD47;
  000718  :  FB3B;
  000719  :  FFA6;
  00071A  :  01FC;
  00071B  :  023F;
  00071C  :  0195;
  00071D  :  0338;
  00071E  :  FB00;
  00071F  :  FDAC;
  000720  :  FAFF;
  000721  :  0067;
  000722  :  00B8;
  000723  :  04B7;
  000724  :  FCD9;
  000725  :  017C;
  000726  :  FB59;
  000727  :  00B9;
  000728  :  FA50;
  000729  :  0579;
  00072A  :  FA83;
  00072B  :  FBA5;
  00072C  :  047E;
  00072D  :  0559;
  00072E  :  0266;
  00072F  :  FC37;
  000730  :  FF05;
  000731  :  FF64;
  000732  :  FDCB;
  000733  :  FE91;
  000734  :  03E0;
  000735  :  04D3;
  000736  :  FEE9;
  000737  :  FD59;
  000738  :  FCE6;
  000739  :  FC0C;
  00073A  :  01F9;
  00073B  :  FF68;
  00073C  :  FF78;
  00073D  :  FE37;
  00073E  :  052B;
  00073F  :  FFA8;
  000740  :  FEBE;
  000741  :  045F;
  000742  :  FEBA;
  000743  :  009D;
  000744  :  FE3B;
  000745  :  01D2;
  000746  :  FD17;
  000747  :  FD92;
  000748  :  0424;
  000749  :  04C4;
  00074A  :  028F;
  00074B  :  FAA8;
  00074C  :  02DA;
  00074D  :  02EF;
  00074E  :  FCB5;
  00074F  :  05CA;
  000750  :  FE66;
  000751  :  FBF6;
  000752  :  FB4C;
  000753  :  FFB7;
  000754  :  0014;
  000755  :  0392;
  000756  :  FC22;
  000757  :  FEEC;
  000758  :  FFF0;
  000759  :  FAB7;
  00075A  :  003E;
  00075B  :  FD86;
  00075C  :  010E;
  00075D  :  FC78;
  00075E  :  FB28;
  00075F  :  02E9;
  000760  :  00AA;
  000761  :  FC07;
  000762  :  FC92;
  000763  :  FD91;
  000764  :  FC79;
  000765  :  0361;
  000766  :  05CC;
  000767  :  FD66;
  000768  :  035B;
  000769  :  02AA;
  00076A  :  0456;
  00076B  :  FBD0;
  00076C  :  FE23;
  00076D  :  FBE8;
  00076E  :  0464;
  00076F  :  0003;
  000770  :  0418;
  000771  :  FB1B;
  000772  :  0279;
  000773  :  FFAA;
  000774  :  FCE6;
  000775  :  041C;
  000776  :  0053;
  000777  :  04F5;
  000778  :  0185;
  000779  :  0041;
  00077A  :  02A3;
  00077B  :  0329;
  00077C  :  FB7C;
  00077D  :  0172;
  00077E  :  0264;
  00077F  :  FA8C;
  000780  :  FC63;
  000781  :  03D9;
  000782  :  036C;
  000783  :  00B8;
  000784  :  0282;
  000785  :  025D;
  000786  :  0333;
  000787  :  0290;
  000788  :  007D;
  000789  :  049C;
  00078A  :  01F1;
  00078B  :  022F;
  00078C  :  0134;
  00078D  :  0333;
  00078E  :  0025;
  00078F  :  FFD3;
  000790  :  FBED;
  000791  :  0097;
  000792  :  00F8;
  000793  :  FD45;
  000794  :  0260;
  000795  :  01EE;
  000796  :  FFAC;
  000797  :  01CF;
  000798  :  01CC;
  000799  :  0210;
  00079A  :  FE2D;
  00079B  :  FEEA;
  00079C  :  05A1;
  00079D  :  0032;
  00079E  :  FC5C;
  00079F  :  FF3C;
  0007A0  :  FDCF;
  0007A1  :  FEC8;
  0007A2  :  0086;
  0007A3  :  00A4;
  0007A4  :  FD00;
  0007A5  :  0060;
  0007A6  :  FC6F;
  0007A7  :  FAED;
  0007A8  :  0123;
  0007A9  :  FD8C;
  0007AA  :  00AF;
  0007AB  :  FB01;
  0007AC  :  0275;
  0007AD  :  FE3D;
  0007AE  :  FC84;
  0007AF  :  FCC0;
  0007B0  :  021B;
  0007B1  :  FC41;
  0007B2  :  FF9E;
  0007B3  :  016C;
  0007B4  :  FDC7;
  0007B5  :  FE1A;
  0007B6  :  FF64;
  0007B7  :  FF5B;
  0007B8  :  009C;
  0007B9  :  05A4;
  0007BA  :  044E;
  0007BB  :  004E;
  0007BC  :  FA89;
  0007BD  :  FAE7;
  0007BE  :  02BB;
  0007BF  :  FBD5;
  0007C0  :  052E;
  0007C1  :  04F8;
  0007C2  :  FF31;
  0007C3  :  FAEF;
  0007C4  :  03B6;
  0007C5  :  FF33;
  0007C6  :  FF6B;
  0007C7  :  FC43;
  0007C8  :  009E;
  0007C9  :  FF3D;
  0007CA  :  FE74;
  0007CB  :  04B9;
  0007CC  :  04CA;
  0007CD  :  FB29;
  0007CE  :  055F;
  0007CF  :  FAEC;
  0007D0  :  FB02;
  0007D1  :  017D;
  0007D2  :  FA85;
  0007D3  :  010C;
  0007D4  :  FF8F;
  0007D5  :  FB2A;
  0007D6  :  0255;
  0007D7  :  FDCD;
  0007D8  :  0091;
  0007D9  :  04F0;
  0007DA  :  01D2;
  0007DB  :  FCBD;
  0007DC  :  FD25;
  0007DD  :  FC01;
  0007DE  :  FFE4;
  0007DF  :  FC92;
  0007E0  :  FDA5;
  0007E1  :  0185;
  0007E2  :  02BB;
  0007E3  :  FDCB;
  0007E4  :  034C;
  0007E5  :  FDA2;
  0007E6  :  0402;
  0007E7  :  00FF;
  0007E8  :  FC23;
  0007E9  :  FF0A;
  0007EA  :  02D8;
  0007EB  :  02D6;
  0007EC  :  00D6;
  0007ED  :  FE0E;
  0007EE  :  0307;
  0007EF  :  031C;
  0007F0  :  00B6;
  0007F1  :  FE79;
  0007F2  :  0597;
  0007F3  :  FF46;
  0007F4  :  00C3;
  0007F5  :  FD6A;
  0007F6  :  0588;
  0007F7  :  0017;
  0007F8  :  FD60;
  0007F9  :  FD0F;
  0007FA  :  FC04;
  0007FB  :  FE90;
  0007FC  :  057D;
  0007FD  :  0203;
  0007FE  :  FE55;
  0007FF  :  01C6;
END;