WIDTH = 16;
DEPTH = 512;

ADDRESS_RADIX = HEX;
DATA_RADIX = HEX;

CONTENT BEGIN
  000000  :  0BED;
  000001  :  F0EE;
  000002  :  FA31;
  000003  :  FEDC;
  000004  :  FDB9;
  000005  :  F839;
  000006  :  124A;
  000007  :  F306;
  000008  :  0C44;
  000009  :  F7EE;
  00000A  :  FBE0;
  00000B  :  F7E5;
  00000C  :  0C5B;
  00000D  :  14FD;
  00000E  :  EF90;
  00000F  :  0E69;
  000010  :  F40C;
  000011  :  0B7A;
  000012  :  F996;
  000013  :  0D82;
  000014  :  F875;
  000015  :  E60F;
  000016  :  03C2;
  000017  :  FD41;
  000018  :  1B21;
  000019  :  0B0B;
  00001A  :  F4E5;
  00001B  :  0292;
  00001C  :  EA01;
  00001D  :  04B6;
  00001E  :  F854;
  00001F  :  0672;
  000020  :  FB5C;
  000021  :  053E;
  000022  :  01D3;
  000023  :  04DE;
  000024  :  F537;
  000025  :  EB09;
  000026  :  F53D;
  000027  :  FA8C;
  000028  :  E6A9;
  000029  :  FE73;
  00002A  :  0040;
  00002B  :  0226;
  00002C  :  E297;
  00002D  :  0CD4;
  00002E  :  E894;
  00002F  :  E7D7;
  000030  :  FCB6;
  000031  :  0C56;
  000032  :  05B0;
  000033  :  F5ED;
  000034  :  EFFD;
  000035  :  F441;
  000036  :  FB18;
  000037  :  FD1D;
  000038  :  06E5;
  000039  :  F472;
  00003A  :  065E;
  00003B  :  FF08;
  00003C  :  FBD4;
  00003D  :  150E;
  00003E  :  FD8C;
  00003F  :  EED4;
  000040  :  0F70;
  000041  :  FE0E;
  000042  :  EB90;
  000043  :  F0AF;
  000044  :  0AD5;
  000045  :  E9AA;
  000046  :  109D;
  000047  :  0978;
  000048  :  FFDA;
  000049  :  FB42;
  00004A  :  F3E6;
  00004B  :  F19B;
  00004C  :  0942;
  00004D  :  03E8;
  00004E  :  09EE;
  00004F  :  16A7;
  000050  :  FA79;
  000051  :  FEDE;
  000052  :  F2AA;
  000053  :  0AB8;
  000054  :  EDB4;
  000055  :  1126;
  000056  :  FA62;
  000057  :  00F7;
  000058  :  E64B;
  000059  :  F989;
  00005A  :  07E4;
  00005B  :  FF29;
  00005C  :  F648;
  00005D  :  034F;
  00005E  :  F6DA;
  00005F  :  F8EE;
  000060  :  F160;
  000061  :  F9B1;
  000062  :  0C18;
  000063  :  FA70;
  000064  :  F489;
  000065  :  0A75;
  000066  :  082C;
  000067  :  F6FF;
  000068  :  0698;
  000069  :  FDCC;
  00006A  :  F455;
  00006B  :  04F9;
  00006C  :  F9F5;
  00006D  :  0B8E;
  00006E  :  F221;
  00006F  :  112B;
  000070  :  FD65;
  000071  :  0250;
  000072  :  FC8C;
  000073  :  F6D3;
  000074  :  035B;
  000075  :  EA9C;
  000076  :  0F28;
  000077  :  0E38;
  000078  :  1B18;
  000079  :  FD9D;
  00007A  :  F6F7;
  00007B  :  DD7F;
  00007C  :  1288;
  00007D  :  E4D7;
  00007E  :  0C2A;
  00007F  :  FBA2;
  000080  :  F2CB;
  000081  :  F9FC;
  000082  :  1337;
  000083  :  E8F2;
  000084  :  E8C6;
  000085  :  FEF2;
  000086  :  EA53;
  000087  :  ED37;
  000088  :  02C3;
  000089  :  0459;
  00008A  :  FC11;
  00008B  :  03BA;
  00008C  :  F176;
  00008D  :  F800;
  00008E  :  0631;
  00008F  :  E585;
  000090  :  EF48;
  000091  :  EF40;
  000092  :  0537;
  000093  :  F070;
  000094  :  EAD4;
  000095  :  E89B;
  000096  :  0A8A;
  000097  :  FAF4;
  000098  :  018C;
  000099  :  FBF6;
  00009A  :  EBC8;
  00009B  :  1358;
  00009C  :  E259;
  00009D  :  0586;
  00009E  :  F5DD;
  00009F  :  F78F;
  0000A0  :  0E27;
  0000A1  :  0FAA;
  0000A2  :  0E88;
  0000A3  :  07C3;
  0000A4  :  ED1D;
  0000A5  :  0AD3;
  0000A6  :  F29E;
  0000A7  :  0088;
  0000A8  :  F9A9;
  0000A9  :  0BA8;
  0000AA  :  F38A;
  0000AB  :  03DA;
  0000AC  :  F3DB;
  0000AD  :  17C8;
  0000AE  :  E3D4;
  0000AF  :  F59D;
  0000B0  :  FE92;
  0000B1  :  DF44;
  0000B2  :  0340;
  0000B3  :  F88A;
  0000B4  :  FFCA;
  0000B5  :  F3F1;
  0000B6  :  EC15;
  0000B7  :  01A1;
  0000B8  :  036A;
  0000B9  :  EEED;
  0000BA  :  FB13;
  0000BB  :  0BC5;
  0000BC  :  E7FF;
  0000BD  :  07E8;
  0000BE  :  0E32;
  0000BF  :  0C9A;
  0000C0  :  F4E7;
  0000C1  :  F0A1;
  0000C2  :  F418;
  0000C3  :  F9EF;
  0000C4  :  FA9B;
  0000C5  :  F745;
  0000C6  :  0B24;
  0000C7  :  E575;
  0000C8  :  1710;
  0000C9  :  EF1D;
  0000CA  :  EC57;
  0000CB  :  FEEF;
  0000CC  :  FB5D;
  0000CD  :  FEFC;
  0000CE  :  FF5D;
  0000CF  :  0038;
  0000D0  :  EB15;
  0000D1  :  F6C1;
  0000D2  :  0752;
  0000D3  :  1388;
  0000D4  :  F2B2;
  0000D5  :  0A7C;
  0000D6  :  1340;
  0000D7  :  EC89;
  0000D8  :  FDC8;
  0000D9  :  07AE;
  0000DA  :  133A;
  0000DB  :  F71E;
  0000DC  :  0871;
  0000DD  :  0231;
  0000DE  :  E77F;
  0000DF  :  06DD;
  0000E0  :  0367;
  0000E1  :  F735;
  0000E2  :  F93C;
  0000E3  :  FBB2;
  0000E4  :  05A7;
  0000E5  :  014A;
  0000E6  :  EF32;
  0000E7  :  F57B;
  0000E8  :  F78F;
  0000E9  :  FE70;
  0000EA  :  126F;
  0000EB  :  FE55;
  0000EC  :  0927;
  0000ED  :  FF94;
  0000EE  :  FF1E;
  0000EF  :  FFCE;
  0000F0  :  0EE1;
  0000F1  :  F364;
  0000F2  :  05A1;
  0000F3  :  FBCA;
  0000F4  :  F05C;
  0000F5  :  FF98;
  0000F6  :  095D;
  0000F7  :  EA36;
  0000F8  :  ECCD;
  0000F9  :  0DE6;
  0000FA  :  FE5E;
  0000FB  :  F841;
  0000FC  :  EAA1;
  0000FD  :  086F;
  0000FE  :  0417;
  0000FF  :  F80D;
  000100  :  E8F6;
  000101  :  F4E5;
  000102  :  F72F;
  000103  :  F2CB;
  000104  :  EEEF;
  000105  :  E449;
  000106  :  0415;
  000107  :  0440;
  000108  :  08D2;
  000109  :  F827;
  00010A  :  F9D3;
  00010B  :  065A;
  00010C  :  F15C;
  00010D  :  0F77;
  00010E  :  0DF9;
  00010F  :  0D6B;
  000110  :  FB54;
  000111  :  F547;
  000112  :  10FA;
  000113  :  0F1F;
  000114  :  F817;
  000115  :  FC22;
  000116  :  0906;
  000117  :  FC1D;
  000118  :  FF4F;
  000119  :  F24E;
  00011A  :  024C;
  00011B  :  FCFD;
  00011C  :  EB7A;
  00011D  :  01C3;
  00011E  :  E36E;
  00011F  :  10B4;
  000120  :  FB9A;
  000121  :  0359;
  000122  :  0D03;
  000123  :  17DA;
  000124  :  F6B2;
  000125  :  F7D5;
  000126  :  E856;
  000127  :  F2CD;
  000128  :  EE99;
  000129  :  ED0F;
  00012A  :  E96E;
  00012B  :  FD66;
  00012C  :  13A5;
  00012D  :  0802;
  00012E  :  0E53;
  00012F  :  ED16;
  000130  :  08C4;
  000131  :  EF13;
  000132  :  0B97;
  000133  :  0615;
  000134  :  0C8F;
  000135  :  E9A9;
  000136  :  FAC7;
  000137  :  0DDB;
  000138  :  F264;
  000139  :  EDC9;
  00013A  :  0018;
  00013B  :  F91C;
  00013C  :  0B0F;
  00013D  :  028E;
  00013E  :  11DC;
  00013F  :  FD5E;
  000140  :  0889;
  000141  :  F01C;
  000142  :  FB44;
  000143  :  F663;
  000144  :  18A6;
  000145  :  0DFD;
  000146  :  E035;
  000147  :  F3FE;
  000148  :  EF79;
  000149  :  FCD0;
  00014A  :  F44F;
  00014B  :  F83C;
  00014C  :  12FB;
  00014D  :  FD3D;
  00014E  :  FD2A;
  00014F  :  FB61;
  000150  :  0173;
  000151  :  ED6E;
  000152  :  FD1F;
  000153  :  0ACE;
  000154  :  FF4E;
  000155  :  1240;
  000156  :  02DB;
  000157  :  F9C0;
  000158  :  FB4B;
  000159  :  F11E;
  00015A  :  FA06;
  00015B  :  F768;
  00015C  :  0CF9;
  00015D  :  F29D;
  00015E  :  0B33;
  00015F  :  F5CF;
  000160  :  0B27;
  000161  :  056E;
  000162  :  FDBC;
  000163  :  01F4;
  000164  :  03F6;
  000165  :  05F2;
  000166  :  F989;
  000167  :  0717;
  000168  :  0901;
  000169  :  F96C;
  00016A  :  05AE;
  00016B  :  0894;
  00016C  :  1B6E;
  00016D  :  029B;
  00016E  :  05EB;
  00016F  :  FB59;
  000170  :  0DFE;
  000171  :  FBF7;
  000172  :  E0B6;
  000173  :  0699;
  000174  :  08DA;
  000175  :  0058;
  000176  :  FD80;
  000177  :  01C9;
  000178  :  F0C3;
  000179  :  FF49;
  00017A  :  F504;
  00017B  :  FE1D;
  00017C  :  F384;
  00017D  :  009D;
  00017E  :  FDFC;
  00017F  :  0232;
  000180  :  0A93;
  000181  :  018F;
  000182  :  E44A;
  000183  :  FE21;
  000184  :  0511;
  000185  :  FC7A;
  000186  :  0B07;
  000187  :  06D1;
  000188  :  E23B;
  000189  :  F543;
  00018A  :  064E;
  00018B  :  0506;
  00018C  :  0FDA;
  00018D  :  F958;
  00018E  :  0A9C;
  00018F  :  025F;
  000190  :  F0E8;
  000191  :  0387;
  000192  :  F659;
  000193  :  E9C7;
  000194  :  06F9;
  000195  :  05B4;
  000196  :  F5EC;
  000197  :  FD86;
  000198  :  0308;
  000199  :  F47E;
  00019A  :  09A0;
  00019B  :  0ABC;
  00019C  :  FC8A;
  00019D  :  EDA6;
  00019E  :  1177;
  00019F  :  F757;
  0001A0  :  E8C3;
  0001A1  :  E99C;
  0001A2  :  FCCB;
  0001A3  :  EE8E;
  0001A4  :  021C;
  0001A5  :  09D4;
  0001A6  :  FEF9;
  0001A7  :  09A6;
  0001A8  :  0113;
  0001A9  :  0BD4;
  0001AA  :  089C;
  0001AB  :  E3A7;
  0001AC  :  FA47;
  0001AD  :  F9F4;
  0001AE  :  01B6;
  0001AF  :  0D13;
  0001B0  :  0958;
  0001B1  :  E666;
  0001B2  :  0FD2;
  0001B3  :  F45B;
  0001B4  :  E7B3;
  0001B5  :  F05F;
  0001B6  :  03FC;
  0001B7  :  FC25;
  0001B8  :  04AE;
  0001B9  :  FDA5;
  0001BA  :  00CC;
  0001BB  :  FC2C;
  0001BC  :  F788;
  0001BD  :  EC56;
  0001BE  :  FF52;
  0001BF  :  E882;
  0001C0  :  0E35;
  0001C1  :  01CD;
  0001C2  :  0CEB;
  0001C3  :  FD9A;
  0001C4  :  ECF4;
  0001C5  :  0D46;
  0001C6  :  FA12;
  0001C7  :  1759;
  0001C8  :  F9C9;
  0001C9  :  F111;
  0001CA  :  0D8C;
  0001CB  :  121D;
  0001CC  :  015E;
  0001CD  :  179A;
  0001CE  :  045B;
  0001CF  :  E6FB;
  0001D0  :  EF64;
  0001D1  :  0B31;
  0001D2  :  FF93;
  0001D3  :  F92A;
  0001D4  :  0816;
  0001D5  :  FAD5;
  0001D6  :  0656;
  0001D7  :  049F;
  0001D8  :  017A;
  0001D9  :  0545;
  0001DA  :  0138;
  0001DB  :  FF29;
  0001DC  :  F380;
  0001DD  :  0806;
  0001DE  :  F6FB;
  0001DF  :  1B1A;
  0001E0  :  FED2;
  0001E1  :  0671;
  0001E2  :  094E;
  0001E3  :  070F;
  0001E4  :  F70F;
  0001E5  :  F727;
  0001E6  :  F039;
  0001E7  :  FAA3;
  0001E8  :  0023;
  0001E9  :  FE0D;
  0001EA  :  12F6;
  0001EB  :  1955;
  0001EC  :  F559;
  0001ED  :  FF34;
  0001EE  :  FACD;
  0001EF  :  0420;
  0001F0  :  F95A;
  0001F1  :  0D3A;
  0001F2  :  054C;
  0001F3  :  096C;
  0001F4  :  F69B;
  0001F5  :  13F1;
  0001F6  :  FB0F;
  0001F7  :  0085;
  0001F8  :  FAA2;
  0001F9  :  0B69;
  0001FA  :  FD49;
  0001FB  :  F899;
  0001FC  :  F390;
  0001FD  :  FCDC;
  0001FE  :  0B44;
  0001FF  :  ECC3;
END;