WIDTH = 16;
DEPTH = 5130;

ADDRESS_RADIX = HEX;
DATA_RADIX = HEX;

CONTENT BEGIN
  000000  :  0BED;
  000001  :  F0EE;
  000002  :  FA31;
  000003  :  FEDC;
  000004  :  FDB9;
  000005  :  F839;
  000006  :  124A;
  000007  :  F306;
  000008  :  0C44;
  000009  :  F7EE;
  00000A  :  FBE0;
  00000B  :  F7E5;
  00000C  :  0C5B;
  00000D  :  14FD;
  00000E  :  EF90;
  00000F  :  0E69;
  000010  :  F40C;
  000011  :  0B7A;
  000012  :  F996;
  000013  :  0D82;
  000014  :  F875;
  000015  :  E60F;
  000016  :  03C2;
  000017  :  FD41;
  000018  :  1B21;
  000019  :  0B0B;
  00001A  :  F4E5;
  00001B  :  0292;
  00001C  :  EA01;
  00001D  :  04B6;
  00001E  :  F854;
  00001F  :  0672;
  000020  :  FB5C;
  000021  :  053E;
  000022  :  01D3;
  000023  :  04DE;
  000024  :  F537;
  000025  :  EB09;
  000026  :  F53D;
  000027  :  FA8C;
  000028  :  E6A9;
  000029  :  FE73;
  00002A  :  0040;
  00002B  :  0226;
  00002C  :  E297;
  00002D  :  0CD4;
  00002E  :  E894;
  00002F  :  E7D7;
  000030  :  FCB6;
  000031  :  0C56;
  000032  :  05B0;
  000033  :  F5ED;
  000034  :  EFFD;
  000035  :  F441;
  000036  :  FB18;
  000037  :  FD1D;
  000038  :  06E5;
  000039  :  F472;
  00003A  :  065E;
  00003B  :  FF08;
  00003C  :  FBD4;
  00003D  :  150E;
  00003E  :  FD8C;
  00003F  :  EED4;
  000040  :  0F70;
  000041  :  FE0E;
  000042  :  EB90;
  000043  :  F0AF;
  000044  :  0AD5;
  000045  :  E9AA;
  000046  :  109D;
  000047  :  0978;
  000048  :  FFDA;
  000049  :  FB42;
  00004A  :  F3E6;
  00004B  :  F19B;
  00004C  :  0942;
  00004D  :  03E8;
  00004E  :  09EE;
  00004F  :  16A7;
  000050  :  FA79;
  000051  :  FEDE;
  000052  :  F2AA;
  000053  :  0AB8;
  000054  :  EDB4;
  000055  :  1126;
  000056  :  FA62;
  000057  :  00F7;
  000058  :  E64B;
  000059  :  F989;
  00005A  :  07E4;
  00005B  :  FF29;
  00005C  :  F648;
  00005D  :  034F;
  00005E  :  F6DA;
  00005F  :  F8EE;
  000060  :  F160;
  000061  :  F9B1;
  000062  :  0C18;
  000063  :  FA70;
  000064  :  F489;
  000065  :  0A75;
  000066  :  082C;
  000067  :  F6FF;
  000068  :  0698;
  000069  :  FDCC;
  00006A  :  F455;
  00006B  :  04F9;
  00006C  :  F9F5;
  00006D  :  0B8E;
  00006E  :  F221;
  00006F  :  112B;
  000070  :  FD65;
  000071  :  0250;
  000072  :  FC8C;
  000073  :  F6D3;
  000074  :  035B;
  000075  :  EA9C;
  000076  :  0F28;
  000077  :  0E38;
  000078  :  1B18;
  000079  :  FD9D;
  00007A  :  F6F7;
  00007B  :  DD7F;
  00007C  :  1288;
  00007D  :  E4D7;
  00007E  :  0C2A;
  00007F  :  FBA2;
  000080  :  F2CB;
  000081  :  F9FC;
  000082  :  1337;
  000083  :  E8F2;
  000084  :  E8C6;
  000085  :  FEF2;
  000086  :  EA53;
  000087  :  ED37;
  000088  :  02C3;
  000089  :  0459;
  00008A  :  FC11;
  00008B  :  03BA;
  00008C  :  F176;
  00008D  :  F800;
  00008E  :  0631;
  00008F  :  E585;
  000090  :  EF48;
  000091  :  EF40;
  000092  :  0537;
  000093  :  F070;
  000094  :  EAD4;
  000095  :  E89B;
  000096  :  0A8A;
  000097  :  FAF4;
  000098  :  018C;
  000099  :  FBF6;
  00009A  :  EBC8;
  00009B  :  1358;
  00009C  :  E259;
  00009D  :  0586;
  00009E  :  F5DD;
  00009F  :  F78F;
  0000A0  :  0E27;
  0000A1  :  0FAA;
  0000A2  :  0E88;
  0000A3  :  07C3;
  0000A4  :  ED1D;
  0000A5  :  0AD3;
  0000A6  :  F29E;
  0000A7  :  0088;
  0000A8  :  F9A9;
  0000A9  :  0BA8;
  0000AA  :  F38A;
  0000AB  :  03DA;
  0000AC  :  F3DB;
  0000AD  :  17C8;
  0000AE  :  E3D4;
  0000AF  :  F59D;
  0000B0  :  FE92;
  0000B1  :  DF44;
  0000B2  :  0340;
  0000B3  :  F88A;
  0000B4  :  FFCA;
  0000B5  :  F3F1;
  0000B6  :  EC15;
  0000B7  :  01A1;
  0000B8  :  036A;
  0000B9  :  EEED;
  0000BA  :  FB13;
  0000BB  :  0BC5;
  0000BC  :  E7FF;
  0000BD  :  07E8;
  0000BE  :  0E32;
  0000BF  :  0C9A;
  0000C0  :  F4E7;
  0000C1  :  F0A1;
  0000C2  :  F418;
  0000C3  :  F9EF;
  0000C4  :  FA9B;
  0000C5  :  F745;
  0000C6  :  0B24;
  0000C7  :  E575;
  0000C8  :  1710;
  0000C9  :  EF1D;
  0000CA  :  EC57;
  0000CB  :  FEEF;
  0000CC  :  FB5D;
  0000CD  :  FEFC;
  0000CE  :  FF5D;
  0000CF  :  0038;
  0000D0  :  EB15;
  0000D1  :  F6C1;
  0000D2  :  0752;
  0000D3  :  1388;
  0000D4  :  F2B2;
  0000D5  :  0A7C;
  0000D6  :  1340;
  0000D7  :  EC89;
  0000D8  :  FDC8;
  0000D9  :  07AE;
  0000DA  :  133A;
  0000DB  :  F71E;
  0000DC  :  0871;
  0000DD  :  0231;
  0000DE  :  E77F;
  0000DF  :  06DD;
  0000E0  :  0367;
  0000E1  :  F735;
  0000E2  :  F93C;
  0000E3  :  FBB2;
  0000E4  :  05A7;
  0000E5  :  014A;
  0000E6  :  EF32;
  0000E7  :  F57B;
  0000E8  :  F78F;
  0000E9  :  FE70;
  0000EA  :  126F;
  0000EB  :  FE55;
  0000EC  :  0927;
  0000ED  :  FF94;
  0000EE  :  FF1E;
  0000EF  :  FFCE;
  0000F0  :  0EE1;
  0000F1  :  F364;
  0000F2  :  05A1;
  0000F3  :  FBCA;
  0000F4  :  F05C;
  0000F5  :  FF98;
  0000F6  :  095D;
  0000F7  :  EA36;
  0000F8  :  ECCD;
  0000F9  :  0DE6;
  0000FA  :  FE5E;
  0000FB  :  F841;
  0000FC  :  EAA1;
  0000FD  :  086F;
  0000FE  :  0417;
  0000FF  :  F80D;
  000100  :  E8F6;
  000101  :  F4E5;
  000102  :  F72F;
  000103  :  F2CB;
  000104  :  EEEF;
  000105  :  E449;
  000106  :  0415;
  000107  :  0440;
  000108  :  08D2;
  000109  :  F827;
  00010A  :  F9D3;
  00010B  :  065A;
  00010C  :  F15C;
  00010D  :  0F77;
  00010E  :  0DF9;
  00010F  :  0D6B;
  000110  :  FB54;
  000111  :  F547;
  000112  :  10FA;
  000113  :  0F1F;
  000114  :  F817;
  000115  :  FC22;
  000116  :  0906;
  000117  :  FC1D;
  000118  :  FF4F;
  000119  :  F24E;
  00011A  :  024C;
  00011B  :  FCFD;
  00011C  :  EB7A;
  00011D  :  01C3;
  00011E  :  E36E;
  00011F  :  10B4;
  000120  :  FB9A;
  000121  :  0359;
  000122  :  0D03;
  000123  :  17DA;
  000124  :  F6B2;
  000125  :  F7D5;
  000126  :  E856;
  000127  :  F2CD;
  000128  :  EE99;
  000129  :  ED0F;
  00012A  :  E96E;
  00012B  :  FD66;
  00012C  :  13A5;
  00012D  :  0802;
  00012E  :  0E53;
  00012F  :  ED16;
  000130  :  08C4;
  000131  :  EF13;
  000132  :  0B97;
  000133  :  0615;
  000134  :  0C8F;
  000135  :  E9A9;
  000136  :  FAC7;
  000137  :  0DDB;
  000138  :  F264;
  000139  :  EDC9;
  00013A  :  0018;
  00013B  :  F91C;
  00013C  :  0B0F;
  00013D  :  028E;
  00013E  :  11DC;
  00013F  :  FD5E;
  000140  :  0889;
  000141  :  F01C;
  000142  :  FB44;
  000143  :  F663;
  000144  :  18A6;
  000145  :  0DFD;
  000146  :  E035;
  000147  :  F3FE;
  000148  :  EF79;
  000149  :  FCD0;
  00014A  :  F44F;
  00014B  :  F83C;
  00014C  :  12FB;
  00014D  :  FD3D;
  00014E  :  FD2A;
  00014F  :  FB61;
  000150  :  0173;
  000151  :  ED6E;
  000152  :  FD1F;
  000153  :  0ACE;
  000154  :  FF4E;
  000155  :  1240;
  000156  :  02DB;
  000157  :  F9C0;
  000158  :  FB4B;
  000159  :  F11E;
  00015A  :  FA06;
  00015B  :  F768;
  00015C  :  0CF9;
  00015D  :  F29D;
  00015E  :  0B33;
  00015F  :  F5CF;
  000160  :  0B27;
  000161  :  056E;
  000162  :  FDBC;
  000163  :  01F4;
  000164  :  03F6;
  000165  :  05F2;
  000166  :  F989;
  000167  :  0717;
  000168  :  0901;
  000169  :  F96C;
  00016A  :  05AE;
  00016B  :  0894;
  00016C  :  1B6E;
  00016D  :  029B;
  00016E  :  05EB;
  00016F  :  FB59;
  000170  :  0DFE;
  000171  :  FBF7;
  000172  :  E0B6;
  000173  :  0699;
  000174  :  08DA;
  000175  :  0058;
  000176  :  FD80;
  000177  :  01C9;
  000178  :  F0C3;
  000179  :  FF49;
  00017A  :  F504;
  00017B  :  FE1D;
  00017C  :  F384;
  00017D  :  009D;
  00017E  :  FDFC;
  00017F  :  0232;
  000180  :  0A93;
  000181  :  018F;
  000182  :  E44A;
  000183  :  FE21;
  000184  :  0511;
  000185  :  FC7A;
  000186  :  0B07;
  000187  :  06D1;
  000188  :  E23B;
  000189  :  F543;
  00018A  :  064E;
  00018B  :  0506;
  00018C  :  0FDA;
  00018D  :  F958;
  00018E  :  0A9C;
  00018F  :  025F;
  000190  :  F0E8;
  000191  :  0387;
  000192  :  F659;
  000193  :  E9C7;
  000194  :  06F9;
  000195  :  05B4;
  000196  :  F5EC;
  000197  :  FD86;
  000198  :  0308;
  000199  :  F47E;
  00019A  :  09A0;
  00019B  :  0ABC;
  00019C  :  FC8A;
  00019D  :  EDA6;
  00019E  :  1177;
  00019F  :  F757;
  0001A0  :  E8C3;
  0001A1  :  E99C;
  0001A2  :  FCCB;
  0001A3  :  EE8E;
  0001A4  :  021C;
  0001A5  :  09D4;
  0001A6  :  FEF9;
  0001A7  :  09A6;
  0001A8  :  0113;
  0001A9  :  0BD4;
  0001AA  :  089C;
  0001AB  :  E3A7;
  0001AC  :  FA47;
  0001AD  :  F9F4;
  0001AE  :  01B6;
  0001AF  :  0D13;
  0001B0  :  0958;
  0001B1  :  E666;
  0001B2  :  0FD2;
  0001B3  :  F45B;
  0001B4  :  E7B3;
  0001B5  :  F05F;
  0001B6  :  03FC;
  0001B7  :  FC25;
  0001B8  :  04AE;
  0001B9  :  FDA5;
  0001BA  :  00CC;
  0001BB  :  FC2C;
  0001BC  :  F788;
  0001BD  :  EC56;
  0001BE  :  FF52;
  0001BF  :  E882;
  0001C0  :  0E35;
  0001C1  :  01CD;
  0001C2  :  0CEB;
  0001C3  :  FD9A;
  0001C4  :  ECF4;
  0001C5  :  0D46;
  0001C6  :  FA12;
  0001C7  :  1759;
  0001C8  :  F9C9;
  0001C9  :  F111;
  0001CA  :  0D8C;
  0001CB  :  121D;
  0001CC  :  015E;
  0001CD  :  179A;
  0001CE  :  045B;
  0001CF  :  E6FB;
  0001D0  :  EF64;
  0001D1  :  0B31;
  0001D2  :  FF93;
  0001D3  :  F92A;
  0001D4  :  0816;
  0001D5  :  FAD5;
  0001D6  :  0656;
  0001D7  :  049F;
  0001D8  :  017A;
  0001D9  :  0545;
  0001DA  :  0138;
  0001DB  :  FF29;
  0001DC  :  F380;
  0001DD  :  0806;
  0001DE  :  F6FB;
  0001DF  :  1B1A;
  0001E0  :  FED2;
  0001E1  :  0671;
  0001E2  :  094E;
  0001E3  :  070F;
  0001E4  :  F70F;
  0001E5  :  F727;
  0001E6  :  F039;
  0001E7  :  FAA3;
  0001E8  :  0023;
  0001E9  :  FE0D;
  0001EA  :  12F6;
  0001EB  :  1955;
  0001EC  :  F559;
  0001ED  :  FF34;
  0001EE  :  FACD;
  0001EF  :  0420;
  0001F0  :  F95A;
  0001F1  :  0D3A;
  0001F2  :  054C;
  0001F3  :  096C;
  0001F4  :  F69B;
  0001F5  :  13F1;
  0001F6  :  FB0F;
  0001F7  :  0085;
  0001F8  :  FAA2;
  0001F9  :  0B69;
  0001FA  :  FD49;
  0001FB  :  F899;
  0001FC  :  F390;
  0001FD  :  FCDC;
  0001FE  :  0B44;
  0001FF  :  ECC3;
  000200  :  F610;
  000201  :  0C0F;
  000202  :  EE6D;
  000203  :  F0B6;
  000204  :  097D;
  000205  :  0ABF;
  000206  :  EFCB;
  000207  :  E614;
  000208  :  F60E;
  000209  :  0981;
  00020A  :  01E4;
  00020B  :  FAF3;
  00020C  :  F852;
  00020D  :  F59D;
  00020E  :  0C02;
  00020F  :  F3D4;
  000210  :  F7C8;
  000211  :  F746;
  000212  :  0B64;
  000213  :  0D06;
  000214  :  1449;
  000215  :  009C;
  000216  :  FB75;
  000217  :  09BF;
  000218  :  1705;
  000219  :  F054;
  00021A  :  0F1A;
  00021B  :  F282;
  00021C  :  010E;
  00021D  :  F4AA;
  00021E  :  FC6C;
  00021F  :  ECC6;
  000220  :  1623;
  000221  :  FB28;
  000222  :  EB2C;
  000223  :  F60B;
  000224  :  09D6;
  000225  :  F717;
  000226  :  EDA5;
  000227  :  F918;
  000228  :  01C0;
  000229  :  1CB2;
  00022A  :  082F;
  00022B  :  1E84;
  00022C  :  EEFA;
  00022D  :  F67A;
  00022E  :  F97C;
  00022F  :  11BD;
  000230  :  FB30;
  000231  :  0CDD;
  000232  :  182E;
  000233  :  FC6C;
  000234  :  0B86;
  000235  :  0BF8;
  000236  :  F27E;
  000237  :  0018;
  000238  :  04EC;
  000239  :  E690;
  00023A  :  FA37;
  00023B  :  FED2;
  00023C  :  05BA;
  00023D  :  01B8;
  00023E  :  EAEA;
  00023F  :  1490;
  000240  :  0674;
  000241  :  F5B7;
  000242  :  FA80;
  000243  :  FC02;
  000244  :  0D4C;
  000245  :  F6B9;
  000246  :  0079;
  000247  :  09EC;
  000248  :  F562;
  000249  :  0B2C;
  00024A  :  02D9;
  00024B  :  0466;
  00024C  :  18A0;
  00024D  :  0BC3;
  00024E  :  F678;
  00024F  :  0AF1;
  000250  :  E499;
  000251  :  00FF;
  000252  :  09B4;
  000253  :  072C;
  000254  :  E844;
  000255  :  EDA0;
  000256  :  F37D;
  000257  :  ED32;
  000258  :  06A7;
  000259  :  F896;
  00025A  :  F612;
  00025B  :  F309;
  00025C  :  0DC3;
  00025D  :  067E;
  00025E  :  FCD9;
  00025F  :  0391;
  000260  :  121E;
  000261  :  F55E;
  000262  :  1696;
  000263  :  03CA;
  000264  :  03F2;
  000265  :  F134;
  000266  :  01F2;
  000267  :  095C;
  000268  :  07C2;
  000269  :  02CD;
  00026A  :  0A73;
  00026B  :  F923;
  00026C  :  03D6;
  00026D  :  0595;
  00026E  :  FC2B;
  00026F  :  0B83;
  000270  :  FE1A;
  000271  :  0CF0;
  000272  :  022C;
  000273  :  0632;
  000274  :  027A;
  000275  :  0840;
  000276  :  E345;
  000277  :  F8D0;
  000278  :  FC8C;
  000279  :  F49C;
  00027A  :  06DE;
  00027B  :  F65A;
  00027C  :  0601;
  00027D  :  F35A;
  00027E  :  11CB;
  00027F  :  1305;
  000280  :  FE53;
  000281  :  024A;
  000282  :  F153;
  000283  :  EECB;
  000284  :  0CF2;
  000285  :  1053;
  000286  :  10DB;
  000287  :  F627;
  000288  :  F768;
  000289  :  F463;
  00028A  :  ED1D;
  00028B  :  E2F8;
  00028C  :  FD3C;
  00028D  :  F394;
  00028E  :  046C;
  00028F  :  0655;
  000290  :  F10B;
  000291  :  F5C3;
  000292  :  FE0C;
  000293  :  EC50;
  000294  :  03BE;
  000295  :  EB0C;
  000296  :  1273;
  000297  :  F90A;
  000298  :  06B6;
  000299  :  0C5C;
  00029A  :  ECD5;
  00029B  :  EE54;
  00029C  :  0574;
  00029D  :  0799;
  00029E  :  F8A1;
  00029F  :  06C2;
  0002A0  :  E79B;
  0002A1  :  0D2B;
  0002A2  :  FD7A;
  0002A3  :  0040;
  0002A4  :  EE39;
  0002A5  :  0632;
  0002A6  :  FF0D;
  0002A7  :  0264;
  0002A8  :  0BAF;
  0002A9  :  0CF5;
  0002AA  :  FD4C;
  0002AB  :  0584;
  0002AC  :  063A;
  0002AD  :  FA93;
  0002AE  :  082C;
  0002AF  :  F444;
  0002B0  :  F997;
  0002B1  :  09DC;
  0002B2  :  0F02;
  0002B3  :  02DF;
  0002B4  :  0B0C;
  0002B5  :  F3D4;
  0002B6  :  05AA;
  0002B7  :  EBB1;
  0002B8  :  F875;
  0002B9  :  0A21;
  0002BA  :  F297;
  0002BB  :  F94B;
  0002BC  :  0440;
  0002BD  :  F28A;
  0002BE  :  1D7B;
  0002BF  :  E70D;
  0002C0  :  0D40;
  0002C1  :  ECE3;
  0002C2  :  DF63;
  0002C3  :  EFFB;
  0002C4  :  0013;
  0002C5  :  0EA3;
  0002C6  :  FBE8;
  0002C7  :  0395;
  0002C8  :  FB3F;
  0002C9  :  0C0E;
  0002CA  :  F73E;
  0002CB  :  0BF8;
  0002CC  :  EED6;
  0002CD  :  0268;
  0002CE  :  E5FC;
  0002CF  :  EA1B;
  0002D0  :  1177;
  0002D1  :  0B3E;
  0002D2  :  FB6C;
  0002D3  :  1089;
  0002D4  :  FD13;
  0002D5  :  E8F8;
  0002D6  :  019A;
  0002D7  :  004D;
  0002D8  :  1032;
  0002D9  :  F5B8;
  0002DA  :  EF17;
  0002DB  :  ED60;
  0002DC  :  0526;
  0002DD  :  053B;
  0002DE  :  0EED;
  0002DF  :  F996;
  0002E0  :  F4FF;
  0002E1  :  F8A3;
  0002E2  :  FC45;
  0002E3  :  0E12;
  0002E4  :  FCD1;
  0002E5  :  0C54;
  0002E6  :  04CB;
  0002E7  :  0F3A;
  0002E8  :  FB58;
  0002E9  :  F859;
  0002EA  :  0CE4;
  0002EB  :  F425;
  0002EC  :  046A;
  0002ED  :  F9E1;
  0002EE  :  EF41;
  0002EF  :  0D93;
  0002F0  :  F149;
  0002F1  :  FC03;
  0002F2  :  0781;
  0002F3  :  0996;
  0002F4  :  0208;
  0002F5  :  0081;
  0002F6  :  EB6D;
  0002F7  :  0352;
  0002F8  :  FDCE;
  0002F9  :  0944;
  0002FA  :  E0B6;
  0002FB  :  F702;
  0002FC  :  F4AE;
  0002FD  :  EC82;
  0002FE  :  FA0A;
  0002FF  :  F95D;
  000300  :  FECA;
  000301  :  1468;
  000302  :  EFA3;
  000303  :  0FD8;
  000304  :  0CE3;
  000305  :  0BB7;
  000306  :  F427;
  000307  :  0507;
  000308  :  04DB;
  000309  :  F1C7;
  00030A  :  F616;
  00030B  :  0BFD;
  00030C  :  012D;
  00030D  :  1035;
  00030E  :  12F5;
  00030F  :  EFEE;
  000310  :  0377;
  000311  :  F656;
  000312  :  E870;
  000313  :  0673;
  000314  :  EC3E;
  000315  :  FED7;
  000316  :  F842;
  000317  :  0D20;
  000318  :  FAC5;
  000319  :  F819;
  00031A  :  FF57;
  00031B  :  045C;
  00031C  :  0AEB;
  00031D  :  F693;
  00031E  :  F033;
  00031F  :  EB56;
  000320  :  0378;
  000321  :  0727;
  000322  :  05D7;
  000323  :  05BD;
  000324  :  04F3;
  000325  :  FCE5;
  000326  :  0906;
  000327  :  1295;
  000328  :  F22E;
  000329  :  F111;
  00032A  :  0E96;
  00032B  :  FB6D;
  00032C  :  EAD8;
  00032D  :  F1FA;
  00032E  :  FC54;
  00032F  :  0102;
  000330  :  0B05;
  000331  :  F078;
  000332  :  F37B;
  000333  :  EDA7;
  000334  :  F6F3;
  000335  :  0109;
  000336  :  F6C6;
  000337  :  025D;
  000338  :  0128;
  000339  :  FC76;
  00033A  :  14C8;
  00033B  :  032F;
  00033C  :  08CF;
  00033D  :  F09E;
  00033E  :  0843;
  00033F  :  104F;
  000340  :  0A52;
  000341  :  1873;
  000342  :  F1B2;
  000343  :  0D28;
  000344  :  03DE;
  000345  :  F625;
  000346  :  0CD7;
  000347  :  1C75;
  000348  :  F842;
  000349  :  1754;
  00034A  :  0BDF;
  00034B  :  FF0D;
  00034C  :  F591;
  00034D  :  F26C;
  00034E  :  F0C3;
  00034F  :  FEDA;
  000350  :  02E4;
  000351  :  0EA9;
  000352  :  054F;
  000353  :  ED4A;
  000354  :  E3BC;
  000355  :  0E9C;
  000356  :  F31F;
  000357  :  078C;
  000358  :  FA3A;
  000359  :  E41A;
  00035A  :  F11C;
  00035B  :  04AD;
  00035C  :  01EA;
  00035D  :  FA9E;
  00035E  :  011F;
  00035F  :  FC04;
  000360  :  F731;
  000361  :  F1E5;
  000362  :  0FC6;
  000363  :  0654;
  000364  :  EF3E;
  000365  :  FD18;
  000366  :  0DAF;
  000367  :  FA41;
  000368  :  FA44;
  000369  :  03F7;
  00036A  :  015B;
  00036B  :  0E80;
  00036C  :  F342;
  00036D  :  F681;
  00036E  :  F95E;
  00036F  :  FD58;
  000370  :  0914;
  000371  :  EB2F;
  000372  :  0031;
  000373  :  FAB7;
  000374  :  FBD0;
  000375  :  07BA;
  000376  :  EDC4;
  000377  :  F55C;
  000378  :  0677;
  000379  :  137A;
  00037A  :  EF15;
  00037B  :  1113;
  00037C  :  F2C5;
  00037D  :  0E09;
  00037E  :  0B9D;
  00037F  :  EDCF;
  000380  :  0E3A;
  000381  :  F6DC;
  000382  :  03BD;
  000383  :  F231;
  000384  :  0A57;
  000385  :  FD1D;
  000386  :  FD57;
  000387  :  060D;
  000388  :  F9C1;
  000389  :  F662;
  00038A  :  0492;
  00038B  :  12B8;
  00038C  :  F821;
  00038D  :  EFE7;
  00038E  :  FE18;
  00038F  :  0A73;
  000390  :  1767;
  000391  :  EEE5;
  000392  :  F509;
  000393  :  2110;
  000394  :  EB28;
  000395  :  0C40;
  000396  :  0CBF;
  000397  :  08BA;
  000398  :  06E5;
  000399  :  FD76;
  00039A  :  F91B;
  00039B  :  04AA;
  00039C  :  08A8;
  00039D  :  E64F;
  00039E  :  0A82;
  00039F  :  FD06;
  0003A0  :  E7FC;
  0003A1  :  F4CF;
  0003A2  :  F4DB;
  0003A3  :  F7A2;
  0003A4  :  ECE1;
  0003A5  :  F6DF;
  0003A6  :  EA16;
  0003A7  :  0BEC;
  0003A8  :  0AA9;
  0003A9  :  FADC;
  0003AA  :  0969;
  0003AB  :  1279;
  0003AC  :  1521;
  0003AD  :  F74C;
  0003AE  :  0C1F;
  0003AF  :  E8C8;
  0003B0  :  0943;
  0003B1  :  1104;
  0003B2  :  FC9F;
  0003B3  :  EA79;
  0003B4  :  0260;
  0003B5  :  11C4;
  0003B6  :  FCAB;
  0003B7  :  0866;
  0003B8  :  F6D6;
  0003B9  :  EF3B;
  0003BA  :  FD1D;
  0003BB  :  01BB;
  0003BC  :  F6C2;
  0003BD  :  12C4;
  0003BE  :  DF3F;
  0003BF  :  FC75;
  0003C0  :  F8BF;
  0003C1  :  E9CD;
  0003C2  :  F012;
  0003C3  :  08C1;
  0003C4  :  F806;
  0003C5  :  FCA1;
  0003C6  :  1341;
  0003C7  :  EF5B;
  0003C8  :  F592;
  0003C9  :  03D8;
  0003CA  :  E9E2;
  0003CB  :  132A;
  0003CC  :  F9E5;
  0003CD  :  F522;
  0003CE  :  EDFA;
  0003CF  :  01D8;
  0003D0  :  F4B0;
  0003D1  :  F88D;
  0003D2  :  FED1;
  0003D3  :  FC0C;
  0003D4  :  0A82;
  0003D5  :  FDAC;
  0003D6  :  129B;
  0003D7  :  F038;
  0003D8  :  08D2;
  0003D9  :  1911;
  0003DA  :  0ADA;
  0003DB  :  0569;
  0003DC  :  0B3F;
  0003DD  :  0A1E;
  0003DE  :  F025;
  0003DF  :  F4E0;
  0003E0  :  EF9A;
  0003E1  :  ECD7;
  0003E2  :  0DBA;
  0003E3  :  00BD;
  0003E4  :  F3FA;
  0003E5  :  138B;
  0003E6  :  FD6A;
  0003E7  :  F7B0;
  0003E8  :  F491;
  0003E9  :  FD06;
  0003EA  :  0FED;
  0003EB  :  FA51;
  0003EC  :  F70D;
  0003ED  :  FDA9;
  0003EE  :  149B;
  0003EF  :  FC5D;
  0003F0  :  E9C0;
  0003F1  :  1073;
  0003F2  :  FB54;
  0003F3  :  EADA;
  0003F4  :  FEB5;
  0003F5  :  F12A;
  0003F6  :  058C;
  0003F7  :  EEEE;
  0003F8  :  FFAD;
  0003F9  :  F134;
  0003FA  :  F46A;
  0003FB  :  F74B;
  0003FC  :  0495;
  0003FD  :  12F5;
  0003FE  :  FDC2;
  0003FF  :  1430;
  000400  :  12CE;
  000401  :  F8C4;
  000402  :  0AB6;
  000403  :  FE32;
  000404  :  0DEB;
  000405  :  FD1C;
  000406  :  F594;
  000407  :  0A32;
  000408  :  F16F;
  000409  :  FD6E;
  00040A  :  0BDC;
  00040B  :  FC80;
  00040C  :  F168;
  00040D  :  1344;
  00040E  :  E673;
  00040F  :  0E65;
  000410  :  0428;
  000411  :  0CF5;
  000412  :  EFC3;
  000413  :  0767;
  000414  :  FFC5;
  000415  :  F825;
  000416  :  F346;
  000417  :  EAD3;
  000418  :  F0C6;
  000419  :  E708;
  00041A  :  0A8D;
  00041B  :  DDE3;
  00041C  :  059C;
  00041D  :  F2C6;
  00041E  :  0E80;
  00041F  :  0ADB;
  000420  :  F6D8;
  000421  :  EF10;
  000422  :  0090;
  000423  :  20E8;
  000424  :  FE29;
  000425  :  F375;
  000426  :  FB4F;
  000427  :  1C7D;
  000428  :  F58D;
  000429  :  F3A3;
  00042A  :  E403;
  00042B  :  0B30;
  00042C  :  F155;
  00042D  :  0B74;
  00042E  :  D7A8;
  00042F  :  F58B;
  000430  :  FD94;
  000431  :  1600;
  000432  :  1C48;
  000433  :  F98E;
  000434  :  F298;
  000435  :  FA7C;
  000436  :  FEDF;
  000437  :  F472;
  000438  :  010D;
  000439  :  ED25;
  00043A  :  1838;
  00043B  :  F357;
  00043C  :  0309;
  00043D  :  FC16;
  00043E  :  E0DE;
  00043F  :  F1BE;
  000440  :  F4D1;
  000441  :  08EB;
  000442  :  0416;
  000443  :  08E5;
  000444  :  E945;
  000445  :  FC81;
  000446  :  0B03;
  000447  :  0D7B;
  000448  :  0738;
  000449  :  0083;
  00044A  :  128D;
  00044B  :  08DA;
  00044C  :  0210;
  00044D  :  E31D;
  00044E  :  0D8C;
  00044F  :  F2E9;
  000450  :  0D35;
  000451  :  0076;
  000452  :  0009;
  000453  :  FEB9;
  000454  :  07A0;
  000455  :  FEA3;
  000456  :  E6BF;
  000457  :  0C2A;
  000458  :  F992;
  000459  :  0B4F;
  00045A  :  E9D9;
  00045B  :  F3DA;
  00045C  :  0CA7;
  00045D  :  0344;
  00045E  :  F0A8;
  00045F  :  04AB;
  000460  :  F42D;
  000461  :  11E6;
  000462  :  FD14;
  000463  :  EEF2;
  000464  :  FD03;
  000465  :  EC82;
  000466  :  F0DF;
  000467  :  0B17;
  000468  :  F545;
  000469  :  088D;
  00046A  :  FFCE;
  00046B  :  0702;
  00046C  :  FF1C;
  00046D  :  FE0A;
  00046E  :  0F22;
  00046F  :  0B80;
  000470  :  EAA4;
  000471  :  1039;
  000472  :  09E3;
  000473  :  EDAC;
  000474  :  EB34;
  000475  :  0679;
  000476  :  0341;
  000477  :  0979;
  000478  :  F78B;
  000479  :  112C;
  00047A  :  006D;
  00047B  :  FE52;
  00047C  :  FF3C;
  00047D  :  EDAF;
  00047E  :  EA20;
  00047F  :  174F;
  000480  :  FD6D;
  000481  :  FB08;
  000482  :  F717;
  000483  :  0F0F;
  000484  :  E868;
  000485  :  17C8;
  000486  :  FBE7;
  000487  :  0E4A;
  000488  :  FCD3;
  000489  :  EBD4;
  00048A  :  F20A;
  00048B  :  1AD0;
  00048C  :  1A7D;
  00048D  :  EC43;
  00048E  :  EC77;
  00048F  :  0D1A;
  000490  :  0710;
  000491  :  F634;
  000492  :  ED5C;
  000493  :  01A9;
  000494  :  E343;
  000495  :  0163;
  000496  :  123D;
  000497  :  FA12;
  000498  :  F733;
  000499  :  10A1;
  00049A  :  FE43;
  00049B  :  0F63;
  00049C  :  0B62;
  00049D  :  15B0;
  00049E  :  126E;
  00049F  :  0200;
  0004A0  :  078B;
  0004A1  :  0A8F;
  0004A2  :  105B;
  0004A3  :  EAD3;
  0004A4  :  F55B;
  0004A5  :  08B3;
  0004A6  :  0A81;
  0004A7  :  03C6;
  0004A8  :  0D9E;
  0004A9  :  04F1;
  0004AA  :  142D;
  0004AB  :  14F8;
  0004AC  :  1122;
  0004AD  :  07DE;
  0004AE  :  FD41;
  0004AF  :  F4A7;
  0004B0  :  EB56;
  0004B1  :  0865;
  0004B2  :  EDF6;
  0004B3  :  F270;
  0004B4  :  EAE0;
  0004B5  :  F145;
  0004B6  :  F211;
  0004B7  :  0C8D;
  0004B8  :  1369;
  0004B9  :  FF1B;
  0004BA  :  0341;
  0004BB  :  0AD4;
  0004BC  :  0049;
  0004BD  :  FDE6;
  0004BE  :  DD76;
  0004BF  :  E976;
  0004C0  :  0878;
  0004C1  :  16CF;
  0004C2  :  0AF3;
  0004C3  :  E340;
  0004C4  :  0544;
  0004C5  :  EFC7;
  0004C6  :  01C2;
  0004C7  :  091D;
  0004C8  :  F1E2;
  0004C9  :  02DA;
  0004CA  :  E7CB;
  0004CB  :  0E21;
  0004CC  :  E970;
  0004CD  :  EB98;
  0004CE  :  128B;
  0004CF  :  0C27;
  0004D0  :  09AC;
  0004D1  :  F4D7;
  0004D2  :  E66A;
  0004D3  :  E9F8;
  0004D4  :  FE4C;
  0004D5  :  1754;
  0004D6  :  FD84;
  0004D7  :  0EA2;
  0004D8  :  EC33;
  0004D9  :  162A;
  0004DA  :  FECE;
  0004DB  :  0A51;
  0004DC  :  FC4A;
  0004DD  :  F7E4;
  0004DE  :  0CE0;
  0004DF  :  FA96;
  0004E0  :  F92B;
  0004E1  :  F8BC;
  0004E2  :  FA34;
  0004E3  :  F906;
  0004E4  :  0C24;
  0004E5  :  1494;
  0004E6  :  F514;
  0004E7  :  0687;
  0004E8  :  DBAB;
  0004E9  :  17E1;
  0004EA  :  0589;
  0004EB  :  0058;
  0004EC  :  F3CD;
  0004ED  :  F37B;
  0004EE  :  0A6B;
  0004EF  :  ED3C;
  0004F0  :  EBE5;
  0004F1  :  EB16;
  0004F2  :  FD21;
  0004F3  :  FF7E;
  0004F4  :  0A91;
  0004F5  :  0E93;
  0004F6  :  FC35;
  0004F7  :  11D3;
  0004F8  :  FE3D;
  0004F9  :  0B97;
  0004FA  :  EB34;
  0004FB  :  18AD;
  0004FC  :  FA76;
  0004FD  :  F61D;
  0004FE  :  022D;
  0004FF  :  053D;
  000500  :  F657;
  000501  :  0C68;
  000502  :  096E;
  000503  :  ECDB;
  000504  :  F910;
  000505  :  0293;
  000506  :  E5A8;
  000507  :  FB28;
  000508  :  0892;
  000509  :  EDD9;
  00050A  :  0387;
  00050B  :  1175;
  00050C  :  EAF9;
  00050D  :  01D2;
  00050E  :  F944;
  00050F  :  18C1;
  000510  :  F559;
  000511  :  015A;
  000512  :  E13A;
  000513  :  EF8B;
  000514  :  F7A5;
  000515  :  F8A7;
  000516  :  E609;
  000517  :  F48A;
  000518  :  0CD9;
  000519  :  0B37;
  00051A  :  FF2C;
  00051B  :  FB34;
  00051C  :  E66E;
  00051D  :  F452;
  00051E  :  0EF3;
  00051F  :  FC63;
  000520  :  E633;
  000521  :  F330;
  000522  :  0C02;
  000523  :  EC5C;
  000524  :  E343;
  000525  :  01A0;
  000526  :  F8D2;
  000527  :  EE71;
  000528  :  E3FD;
  000529  :  0660;
  00052A  :  1A96;
  00052B  :  F78A;
  00052C  :  F94C;
  00052D  :  00D8;
  00052E  :  E9B6;
  00052F  :  F502;
  000530  :  1766;
  000531  :  0EAB;
  000532  :  F506;
  000533  :  12C6;
  000534  :  E9AE;
  000535  :  0966;
  000536  :  E943;
  000537  :  0A7B;
  000538  :  F7ED;
  000539  :  EFB2;
  00053A  :  F94E;
  00053B  :  0D84;
  00053C  :  EE96;
  00053D  :  F0DF;
  00053E  :  F1BB;
  00053F  :  E120;
  000540  :  07B4;
  000541  :  0BBA;
  000542  :  0A17;
  000543  :  F467;
  000544  :  1278;
  000545  :  0092;
  000546  :  2458;
  000547  :  048C;
  000548  :  06A1;
  000549  :  0265;
  00054A  :  E3EC;
  00054B  :  FD10;
  00054C  :  0500;
  00054D  :  12BC;
  00054E  :  E8F4;
  00054F  :  1640;
  000550  :  FD40;
  000551  :  DDD8;
  000552  :  0EB0;
  000553  :  104D;
  000554  :  04F2;
  000555  :  1192;
  000556  :  0859;
  000557  :  1A33;
  000558  :  E8EE;
  000559  :  0767;
  00055A  :  15E9;
  00055B  :  FA81;
  00055C  :  0047;
  00055D  :  FD07;
  00055E  :  FEDA;
  00055F  :  0962;
  000560  :  054E;
  000561  :  0C45;
  000562  :  ED75;
  000563  :  E92E;
  000564  :  FF7F;
  000565  :  15CD;
  000566  :  0A33;
  000567  :  09BB;
  000568  :  E50D;
  000569  :  FDFD;
  00056A  :  00DD;
  00056B  :  FE66;
  00056C  :  F7BC;
  00056D  :  EDD6;
  00056E  :  0F0A;
  00056F  :  0D1F;
  000570  :  17DB;
  000571  :  0759;
  000572  :  EF78;
  000573  :  F607;
  000574  :  F74E;
  000575  :  E974;
  000576  :  0906;
  000577  :  EAB6;
  000578  :  F0F4;
  000579  :  0D1C;
  00057A  :  028C;
  00057B  :  02D6;
  00057C  :  F85D;
  00057D  :  0646;
  00057E  :  0065;
  00057F  :  F267;
  000580  :  F09B;
  000581  :  0937;
  000582  :  FFCA;
  000583  :  10A1;
  000584  :  ED16;
  000585  :  0DA1;
  000586  :  F2A3;
  000587  :  1285;
  000588  :  F46B;
  000589  :  FCE0;
  00058A  :  E011;
  00058B  :  F2CE;
  00058C  :  00A5;
  00058D  :  F2AC;
  00058E  :  142C;
  00058F  :  F3CA;
  000590  :  043A;
  000591  :  F2DA;
  000592  :  0F39;
  000593  :  0373;
  000594  :  EACD;
  000595  :  0770;
  000596  :  F933;
  000597  :  EF5A;
  000598  :  F22D;
  000599  :  FD39;
  00059A  :  ED0F;
  00059B  :  FD7C;
  00059C  :  01E4;
  00059D  :  0BFE;
  00059E  :  166A;
  00059F  :  0B7A;
  0005A0  :  E4A7;
  0005A1  :  DD85;
  0005A2  :  0407;
  0005A3  :  E5F4;
  0005A4  :  EF98;
  0005A5  :  FF9A;
  0005A6  :  F248;
  0005A7  :  062E;
  0005A8  :  E7E2;
  0005A9  :  01A5;
  0005AA  :  F589;
  0005AB  :  F7AB;
  0005AC  :  EC21;
  0005AD  :  FBA7;
  0005AE  :  1026;
  0005AF  :  14BA;
  0005B0  :  0F44;
  0005B1  :  01EE;
  0005B2  :  10BA;
  0005B3  :  F293;
  0005B4  :  F916;
  0005B5  :  0115;
  0005B6  :  09EF;
  0005B7  :  F473;
  0005B8  :  FB30;
  0005B9  :  0061;
  0005BA  :  F3B0;
  0005BB  :  076D;
  0005BC  :  0100;
  0005BD  :  F4A3;
  0005BE  :  F3C8;
  0005BF  :  E8D7;
  0005C0  :  04B2;
  0005C1  :  0FB7;
  0005C2  :  E7A0;
  0005C3  :  EDC5;
  0005C4  :  0C5C;
  0005C5  :  0643;
  0005C6  :  1060;
  0005C7  :  E5FE;
  0005C8  :  F1C8;
  0005C9  :  0C29;
  0005CA  :  F0CA;
  0005CB  :  F14A;
  0005CC  :  0C60;
  0005CD  :  0691;
  0005CE  :  0002;
  0005CF  :  F6DC;
  0005D0  :  F5EE;
  0005D1  :  0238;
  0005D2  :  FF2A;
  0005D3  :  F4E0;
  0005D4  :  E457;
  0005D5  :  021A;
  0005D6  :  F026;
  0005D7  :  F563;
  0005D8  :  0D9A;
  0005D9  :  0C0A;
  0005DA  :  FBEB;
  0005DB  :  F956;
  0005DC  :  03A3;
  0005DD  :  0238;
  0005DE  :  F609;
  0005DF  :  0D41;
  0005E0  :  F8CA;
  0005E1  :  FA7F;
  0005E2  :  10C3;
  0005E3  :  0414;
  0005E4  :  FDBB;
  0005E5  :  0DE7;
  0005E6  :  05E4;
  0005E7  :  0662;
  0005E8  :  1170;
  0005E9  :  E269;
  0005EA  :  05FA;
  0005EB  :  F17F;
  0005EC  :  0AE4;
  0005ED  :  FAB5;
  0005EE  :  FF28;
  0005EF  :  E6B4;
  0005F0  :  FB4B;
  0005F1  :  FEB5;
  0005F2  :  F333;
  0005F3  :  00A5;
  0005F4  :  F969;
  0005F5  :  0BD7;
  0005F6  :  0FC9;
  0005F7  :  F6FE;
  0005F8  :  F1FA;
  0005F9  :  0C5F;
  0005FA  :  EDFE;
  0005FB  :  06A8;
  0005FC  :  01F4;
  0005FD  :  0915;
  0005FE  :  052A;
  0005FF  :  F9FC;
  000600  :  F53F;
  000601  :  E7F5;
  000602  :  FC4B;
  000603  :  081E;
  000604  :  ED3D;
  000605  :  F248;
  000606  :  0B67;
  000607  :  00A8;
  000608  :  E245;
  000609  :  EE98;
  00060A  :  FE78;
  00060B  :  FCA4;
  00060C  :  F53E;
  00060D  :  FD02;
  00060E  :  EE85;
  00060F  :  00C9;
  000610  :  F48C;
  000611  :  0E8E;
  000612  :  EEE7;
  000613  :  EE31;
  000614  :  0750;
  000615  :  0BC8;
  000616  :  0E92;
  000617  :  FD81;
  000618  :  0AE9;
  000619  :  04DC;
  00061A  :  05BD;
  00061B  :  09E8;
  00061C  :  ED40;
  00061D  :  1210;
  00061E  :  FA12;
  00061F  :  05E8;
  000620  :  EA6B;
  000621  :  FB17;
  000622  :  F630;
  000623  :  F9E0;
  000624  :  EADD;
  000625  :  0574;
  000626  :  FE97;
  000627  :  FCA4;
  000628  :  E96F;
  000629  :  10E8;
  00062A  :  F1C8;
  00062B  :  1A39;
  00062C  :  1B3F;
  00062D  :  EFF6;
  00062E  :  028C;
  00062F  :  DBAC;
  000630  :  F61B;
  000631  :  1841;
  000632  :  1833;
  000633  :  E9AB;
  000634  :  103C;
  000635  :  0B65;
  000636  :  1197;
  000637  :  FEB9;
  000638  :  F9F7;
  000639  :  F549;
  00063A  :  F8F6;
  00063B  :  F248;
  00063C  :  01F6;
  00063D  :  04EF;
  00063E  :  0739;
  00063F  :  176D;
  000640  :  0B96;
  000641  :  08E6;
  000642  :  0FF2;
  000643  :  F91C;
  000644  :  F872;
  000645  :  0F06;
  000646  :  F66D;
  000647  :  0E38;
  000648  :  1D8C;
  000649  :  1113;
  00064A  :  0B7D;
  00064B  :  08DA;
  00064C  :  04EB;
  00064D  :  E2C0;
  00064E  :  1445;
  00064F  :  F970;
  000650  :  E775;
  000651  :  F313;
  000652  :  088E;
  000653  :  F0D6;
  000654  :  04E1;
  000655  :  0D40;
  000656  :  E3B5;
  000657  :  E3B5;
  000658  :  E735;
  000659  :  EF59;
  00065A  :  028C;
  00065B  :  184F;
  00065C  :  E981;
  00065D  :  0D10;
  00065E  :  156E;
  00065F  :  F9FA;
  000660  :  F763;
  000661  :  F5DF;
  000662  :  E666;
  000663  :  FA26;
  000664  :  F5FC;
  000665  :  019A;
  000666  :  EAFF;
  000667  :  FB40;
  000668  :  0280;
  000669  :  0BC2;
  00066A  :  FBF5;
  00066B  :  FB80;
  00066C  :  F35B;
  00066D  :  F3AC;
  00066E  :  01E5;
  00066F  :  E32B;
  000670  :  04D1;
  000671  :  F490;
  000672  :  EDBA;
  000673  :  FB02;
  000674  :  016F;
  000675  :  1339;
  000676  :  0158;
  000677  :  FBFE;
  000678  :  F65D;
  000679  :  0D9F;
  00067A  :  FCB0;
  00067B  :  07A3;
  00067C  :  F730;
  00067D  :  F82E;
  00067E  :  E35A;
  00067F  :  1B0F;
  000680  :  0A14;
  000681  :  054F;
  000682  :  0A77;
  000683  :  E78A;
  000684  :  F4FB;
  000685  :  0B44;
  000686  :  E619;
  000687  :  13FA;
  000688  :  087D;
  000689  :  FD8E;
  00068A  :  F60F;
  00068B  :  0161;
  00068C  :  F635;
  00068D  :  DACA;
  00068E  :  F92E;
  00068F  :  1368;
  000690  :  02CA;
  000691  :  FD04;
  000692  :  059F;
  000693  :  F1CE;
  000694  :  E5B6;
  000695  :  FEBC;
  000696  :  0C33;
  000697  :  F009;
  000698  :  EDF3;
  000699  :  F4BF;
  00069A  :  FEBB;
  00069B  :  0BA8;
  00069C  :  06A7;
  00069D  :  E3EC;
  00069E  :  E66E;
  00069F  :  ED32;
  0006A0  :  FD15;
  0006A1  :  FD30;
  0006A2  :  17E3;
  0006A3  :  0815;
  0006A4  :  1158;
  0006A5  :  FA9A;
  0006A6  :  F720;
  0006A7  :  019F;
  0006A8  :  F8EB;
  0006A9  :  F72D;
  0006AA  :  0B64;
  0006AB  :  E3CE;
  0006AC  :  1206;
  0006AD  :  1AF0;
  0006AE  :  F3ED;
  0006AF  :  F9C8;
  0006B0  :  E4C3;
  0006B1  :  D858;
  0006B2  :  F70D;
  0006B3  :  E281;
  0006B4  :  EAC6;
  0006B5  :  EA3C;
  0006B6  :  FD9C;
  0006B7  :  099D;
  0006B8  :  F85A;
  0006B9  :  FF0B;
  0006BA  :  EB27;
  0006BB  :  0784;
  0006BC  :  EECA;
  0006BD  :  E5F6;
  0006BE  :  09D5;
  0006BF  :  1C51;
  0006C0  :  F394;
  0006C1  :  182D;
  0006C2  :  DEA0;
  0006C3  :  0BD7;
  0006C4  :  199B;
  0006C5  :  051D;
  0006C6  :  FBBF;
  0006C7  :  0983;
  0006C8  :  F9B5;
  0006C9  :  F006;
  0006CA  :  0488;
  0006CB  :  067F;
  0006CC  :  FC4E;
  0006CD  :  0883;
  0006CE  :  0D92;
  0006CF  :  07C2;
  0006D0  :  13B9;
  0006D1  :  F9F1;
  0006D2  :  12F5;
  0006D3  :  EE7E;
  0006D4  :  01BD;
  0006D5  :  E7C5;
  0006D6  :  E605;
  0006D7  :  1F03;
  0006D8  :  F258;
  0006D9  :  117F;
  0006DA  :  FD10;
  0006DB  :  F98A;
  0006DC  :  0BEA;
  0006DD  :  11E2;
  0006DE  :  02C3;
  0006DF  :  FE53;
  0006E0  :  E75B;
  0006E1  :  1484;
  0006E2  :  088E;
  0006E3  :  011A;
  0006E4  :  13BB;
  0006E5  :  F1E0;
  0006E6  :  EC97;
  0006E7  :  0612;
  0006E8  :  08CE;
  0006E9  :  E5BB;
  0006EA  :  EAFE;
  0006EB  :  05D1;
  0006EC  :  11F6;
  0006ED  :  FDA3;
  0006EE  :  090A;
  0006EF  :  F6A2;
  0006F0  :  EEAA;
  0006F1  :  1865;
  0006F2  :  0AC1;
  0006F3  :  078A;
  0006F4  :  0490;
  0006F5  :  FF8D;
  0006F6  :  E94D;
  0006F7  :  FA06;
  0006F8  :  F93D;
  0006F9  :  FEB4;
  0006FA  :  016C;
  0006FB  :  041A;
  0006FC  :  0E0F;
  0006FD  :  0794;
  0006FE  :  167A;
  0006FF  :  F92D;
  000700  :  EEEC;
  000701  :  0036;
  000702  :  FC83;
  000703  :  F81A;
  000704  :  12CA;
  000705  :  E693;
  000706  :  FD85;
  000707  :  E6A7;
  000708  :  E700;
  000709  :  0C09;
  00070A  :  1CBD;
  00070B  :  007A;
  00070C  :  06EF;
  00070D  :  04CA;
  00070E  :  F9BC;
  00070F  :  F74A;
  000710  :  0882;
  000711  :  FCC7;
  000712  :  F969;
  000713  :  E42F;
  000714  :  0FF4;
  000715  :  0DD2;
  000716  :  0FAA;
  000717  :  FBCF;
  000718  :  07A5;
  000719  :  02EC;
  00071A  :  FC99;
  00071B  :  F877;
  00071C  :  17CE;
  00071D  :  1761;
  00071E  :  08F3;
  00071F  :  FF37;
  000720  :  1F61;
  000721  :  EF52;
  000722  :  F1B9;
  000723  :  0407;
  000724  :  FCF2;
  000725  :  12A5;
  000726  :  F3DE;
  000727  :  10E0;
  000728  :  F574;
  000729  :  F591;
  00072A  :  0006;
  00072B  :  EDB4;
  00072C  :  FD8C;
  00072D  :  F85C;
  00072E  :  F5EB;
  00072F  :  17CC;
  000730  :  08BC;
  000731  :  F17C;
  000732  :  0D91;
  000733  :  F189;
  000734  :  10D7;
  000735  :  0EB9;
  000736  :  0B7E;
  000737  :  E9F5;
  000738  :  F4F3;
  000739  :  E7E2;
  00073A  :  FCCA;
  00073B  :  EEC0;
  00073C  :  0813;
  00073D  :  F76B;
  00073E  :  F870;
  00073F  :  E7C7;
  000740  :  D801;
  000741  :  E472;
  000742  :  0334;
  000743  :  0E48;
  000744  :  F5EE;
  000745  :  ECF7;
  000746  :  E975;
  000747  :  D9A2;
  000748  :  1AB6;
  000749  :  F3DB;
  00074A  :  10B3;
  00074B  :  02F8;
  00074C  :  EE4A;
  00074D  :  F7FA;
  00074E  :  EF8B;
  00074F  :  11B8;
  000750  :  13AA;
  000751  :  F88C;
  000752  :  FAFF;
  000753  :  0E6A;
  000754  :  0507;
  000755  :  084E;
  000756  :  1200;
  000757  :  010D;
  000758  :  EB87;
  000759  :  12EF;
  00075A  :  FDB3;
  00075B  :  E50E;
  00075C  :  F4DB;
  00075D  :  FC69;
  00075E  :  F8B8;
  00075F  :  FA10;
  000760  :  0738;
  000761  :  E2FA;
  000762  :  FE89;
  000763  :  E9BA;
  000764  :  F75C;
  000765  :  F399;
  000766  :  0249;
  000767  :  FF79;
  000768  :  0509;
  000769  :  E151;
  00076A  :  FD18;
  00076B  :  FFFF;
  00076C  :  043C;
  00076D  :  F8DD;
  00076E  :  0602;
  00076F  :  158F;
  000770  :  0846;
  000771  :  EAE7;
  000772  :  F5FB;
  000773  :  F735;
  000774  :  F363;
  000775  :  0557;
  000776  :  0176;
  000777  :  0698;
  000778  :  0FC5;
  000779  :  01F1;
  00077A  :  00E8;
  00077B  :  E42D;
  00077C  :  E3AB;
  00077D  :  F247;
  00077E  :  FC28;
  00077F  :  0980;
  000780  :  0707;
  000781  :  EC41;
  000782  :  01B4;
  000783  :  12FE;
  000784  :  FE79;
  000785  :  04B0;
  000786  :  F1A9;
  000787  :  0A67;
  000788  :  F821;
  000789  :  FFE7;
  00078A  :  04F0;
  00078B  :  F5E9;
  00078C  :  0B91;
  00078D  :  F73A;
  00078E  :  FA07;
  00078F  :  0CB1;
  000790  :  0E83;
  000791  :  1047;
  000792  :  E395;
  000793  :  0580;
  000794  :  0C0F;
  000795  :  05FF;
  000796  :  F412;
  000797  :  0458;
  000798  :  08CF;
  000799  :  FCB6;
  00079A  :  0A48;
  00079B  :  06A5;
  00079C  :  1465;
  00079D  :  F9DD;
  00079E  :  04D9;
  00079F  :  13B2;
  0007A0  :  05A4;
  0007A1  :  1CE1;
  0007A2  :  FE32;
  0007A3  :  E5B0;
  0007A4  :  0980;
  0007A5  :  0100;
  0007A6  :  03C8;
  0007A7  :  08AE;
  0007A8  :  F106;
  0007A9  :  E535;
  0007AA  :  EB8A;
  0007AB  :  FCED;
  0007AC  :  F8BE;
  0007AD  :  09EA;
  0007AE  :  03DB;
  0007AF  :  0305;
  0007B0  :  117F;
  0007B1  :  FFA9;
  0007B2  :  F6BA;
  0007B3  :  E750;
  0007B4  :  F382;
  0007B5  :  EF4C;
  0007B6  :  0550;
  0007B7  :  17CA;
  0007B8  :  14E1;
  0007B9  :  F3AC;
  0007BA  :  F6AD;
  0007BB  :  EA51;
  0007BC  :  099A;
  0007BD  :  0E75;
  0007BE  :  0D30;
  0007BF  :  FCAF;
  0007C0  :  F7BD;
  0007C1  :  0369;
  0007C2  :  0ED4;
  0007C3  :  08B5;
  0007C4  :  0A55;
  0007C5  :  F4B7;
  0007C6  :  079D;
  0007C7  :  00F0;
  0007C8  :  1103;
  0007C9  :  0BBB;
  0007CA  :  F124;
  0007CB  :  EA59;
  0007CC  :  EB4E;
  0007CD  :  0481;
  0007CE  :  08AC;
  0007CF  :  0E4F;
  0007D0  :  E9E3;
  0007D1  :  0A5C;
  0007D2  :  F974;
  0007D3  :  0905;
  0007D4  :  0963;
  0007D5  :  12BE;
  0007D6  :  076A;
  0007D7  :  E562;
  0007D8  :  F2C4;
  0007D9  :  EDBA;
  0007DA  :  E349;
  0007DB  :  074F;
  0007DC  :  FC1E;
  0007DD  :  056F;
  0007DE  :  08BE;
  0007DF  :  FD5D;
  0007E0  :  F815;
  0007E1  :  F796;
  0007E2  :  EF41;
  0007E3  :  0E0B;
  0007E4  :  FEDE;
  0007E5  :  010E;
  0007E6  :  E875;
  0007E7  :  F008;
  0007E8  :  0C11;
  0007E9  :  EE2F;
  0007EA  :  DDC4;
  0007EB  :  0028;
  0007EC  :  01B4;
  0007ED  :  FA77;
  0007EE  :  F0D4;
  0007EF  :  008F;
  0007F0  :  DFAA;
  0007F1  :  F361;
  0007F2  :  FECD;
  0007F3  :  FA9B;
  0007F4  :  0E67;
  0007F5  :  F772;
  0007F6  :  0436;
  0007F7  :  056D;
  0007F8  :  01F0;
  0007F9  :  EF2A;
  0007FA  :  FFBD;
  0007FB  :  FC99;
  0007FC  :  FF48;
  0007FD  :  E7C1;
  0007FE  :  F18F;
  0007FF  :  FA1F;
  000800  :  F877;
  000801  :  DC56;
  000802  :  F73F;
  000803  :  F96E;
  000804  :  07BE;
  000805  :  F795;
  000806  :  0C34;
  000807  :  FC44;
  000808  :  FC5C;
  000809  :  F3C4;
  00080A  :  FB93;
  00080B  :  F96D;
  00080C  :  0BED;
  00080D  :  FD88;
  00080E  :  F2CD;
  00080F  :  0C7E;
  000810  :  038D;
  000811  :  06BE;
  000812  :  F21A;
  000813  :  0076;
  000814  :  1263;
  000815  :  F0F1;
  000816  :  FEFC;
  000817  :  F7EF;
  000818  :  0CCC;
  000819  :  ECC2;
  00081A  :  0D65;
  00081B  :  F3D0;
  00081C  :  0379;
  00081D  :  0825;
  00081E  :  FE3F;
  00081F  :  0E37;
  000820  :  16E6;
  000821  :  F8AD;
  000822  :  E761;
  000823  :  F37F;
  000824  :  05C6;
  000825  :  DF8A;
  000826  :  0809;
  000827  :  0551;
  000828  :  0BA2;
  000829  :  E2D3;
  00082A  :  F63C;
  00082B  :  0FC3;
  00082C  :  0621;
  00082D  :  F1E6;
  00082E  :  EE92;
  00082F  :  F30A;
  000830  :  0508;
  000831  :  0EDA;
  000832  :  EDCA;
  000833  :  F503;
  000834  :  F753;
  000835  :  16DA;
  000836  :  F317;
  000837  :  F3B8;
  000838  :  F338;
  000839  :  E738;
  00083A  :  F302;
  00083B  :  F6DE;
  00083C  :  ECEF;
  00083D  :  F45C;
  00083E  :  0A9A;
  00083F  :  0974;
  000840  :  FAF7;
  000841  :  E699;
  000842  :  0C6A;
  000843  :  F24A;
  000844  :  E7E4;
  000845  :  FADA;
  000846  :  0988;
  000847  :  0782;
  000848  :  F6B1;
  000849  :  132E;
  00084A  :  E73E;
  00084B  :  F1F2;
  00084C  :  08CF;
  00084D  :  0223;
  00084E  :  04E7;
  00084F  :  1290;
  000850  :  FF98;
  000851  :  F17E;
  000852  :  F69C;
  000853  :  E428;
  000854  :  0A4C;
  000855  :  0B22;
  000856  :  056F;
  000857  :  DEE7;
  000858  :  1457;
  000859  :  1370;
  00085A  :  FCBC;
  00085B  :  0BEA;
  00085C  :  07CC;
  00085D  :  0A6E;
  00085E  :  0319;
  00085F  :  E739;
  000860  :  E2A9;
  000861  :  0956;
  000862  :  F7B4;
  000863  :  F22B;
  000864  :  F799;
  000865  :  054F;
  000866  :  037D;
  000867  :  0422;
  000868  :  EA32;
  000869  :  0818;
  00086A  :  0236;
  00086B  :  02DA;
  00086C  :  066C;
  00086D  :  0491;
  00086E  :  F9E9;
  00086F  :  0A58;
  000870  :  0E8F;
  000871  :  04A3;
  000872  :  0E09;
  000873  :  0C3D;
  000874  :  FB15;
  000875  :  2065;
  000876  :  1178;
  000877  :  0DE1;
  000878  :  096A;
  000879  :  F993;
  00087A  :  0AC7;
  00087B  :  F63A;
  00087C  :  F309;
  00087D  :  05FD;
  00087E  :  0C05;
  00087F  :  EC93;
  000880  :  07A5;
  000881  :  F50A;
  000882  :  04AC;
  000883  :  ED51;
  000884  :  EBED;
  000885  :  0F57;
  000886  :  013A;
  000887  :  FF80;
  000888  :  E1FD;
  000889  :  F862;
  00088A  :  F182;
  00088B  :  E1AC;
  00088C  :  F708;
  00088D  :  0DE6;
  00088E  :  F654;
  00088F  :  FDBB;
  000890  :  E446;
  000891  :  FF5F;
  000892  :  0C6F;
  000893  :  EEF0;
  000894  :  EF90;
  000895  :  0A37;
  000896  :  E2D7;
  000897  :  0C9D;
  000898  :  FFF1;
  000899  :  1266;
  00089A  :  007A;
  00089B  :  143A;
  00089C  :  092C;
  00089D  :  FB90;
  00089E  :  ED95;
  00089F  :  0705;
  0008A0  :  FA7E;
  0008A1  :  04D4;
  0008A2  :  01E7;
  0008A3  :  121A;
  0008A4  :  E908;
  0008A5  :  EC11;
  0008A6  :  1133;
  0008A7  :  01A4;
  0008A8  :  13A0;
  0008A9  :  FDF8;
  0008AA  :  F88B;
  0008AB  :  01B7;
  0008AC  :  EB03;
  0008AD  :  E270;
  0008AE  :  0C6A;
  0008AF  :  F4FC;
  0008B0  :  0316;
  0008B1  :  F124;
  0008B2  :  FDB0;
  0008B3  :  0396;
  0008B4  :  FB3D;
  0008B5  :  F39F;
  0008B6  :  F5B5;
  0008B7  :  001C;
  0008B8  :  F9C9;
  0008B9  :  038C;
  0008BA  :  F71E;
  0008BB  :  FA52;
  0008BC  :  06AE;
  0008BD  :  EA20;
  0008BE  :  0792;
  0008BF  :  04A6;
  0008C0  :  EC66;
  0008C1  :  18F9;
  0008C2  :  E56D;
  0008C3  :  1CEE;
  0008C4  :  FBC5;
  0008C5  :  F4AE;
  0008C6  :  07FF;
  0008C7  :  0E07;
  0008C8  :  1DEB;
  0008C9  :  E8D4;
  0008CA  :  E9D1;
  0008CB  :  0484;
  0008CC  :  EE0E;
  0008CD  :  1558;
  0008CE  :  FA6C;
  0008CF  :  1698;
  0008D0  :  F6CD;
  0008D1  :  15ED;
  0008D2  :  0D7A;
  0008D3  :  E608;
  0008D4  :  EA7F;
  0008D5  :  05FC;
  0008D6  :  EA74;
  0008D7  :  EE4D;
  0008D8  :  F8EA;
  0008D9  :  E8A2;
  0008DA  :  F1FE;
  0008DB  :  0BA2;
  0008DC  :  0C2B;
  0008DD  :  ED64;
  0008DE  :  1235;
  0008DF  :  FD72;
  0008E0  :  079D;
  0008E1  :  0946;
  0008E2  :  EC73;
  0008E3  :  E7A8;
  0008E4  :  E3AD;
  0008E5  :  01CC;
  0008E6  :  0121;
  0008E7  :  0768;
  0008E8  :  0F70;
  0008E9  :  005C;
  0008EA  :  1171;
  0008EB  :  1343;
  0008EC  :  0D65;
  0008ED  :  EC12;
  0008EE  :  132B;
  0008EF  :  FC1C;
  0008F0  :  0701;
  0008F1  :  EE6F;
  0008F2  :  FABE;
  0008F3  :  F4AD;
  0008F4  :  0FFC;
  0008F5  :  0B73;
  0008F6  :  0791;
  0008F7  :  F9E0;
  0008F8  :  F6B1;
  0008F9  :  F2FA;
  0008FA  :  0A0B;
  0008FB  :  FCBA;
  0008FC  :  1597;
  0008FD  :  11C7;
  0008FE  :  FD77;
  0008FF  :  F3E7;
  000900  :  F755;
  000901  :  EAF4;
  000902  :  F313;
  000903  :  F810;
  000904  :  0F06;
  000905  :  F542;
  000906  :  F6AA;
  000907  :  0DCD;
  000908  :  ED65;
  000909  :  E3CB;
  00090A  :  FC05;
  00090B  :  157A;
  00090C  :  00CA;
  00090D  :  156C;
  00090E  :  053A;
  00090F  :  0CEA;
  000910  :  11D7;
  000911  :  F16E;
  000912  :  F2E0;
  000913  :  F580;
  000914  :  F8D7;
  000915  :  00C3;
  000916  :  E337;
  000917  :  0651;
  000918  :  0940;
  000919  :  0423;
  00091A  :  FC35;
  00091B  :  F29A;
  00091C  :  0328;
  00091D  :  F58F;
  00091E  :  01DF;
  00091F  :  0983;
  000920  :  DD7C;
  000921  :  E522;
  000922  :  FE15;
  000923  :  EFFD;
  000924  :  03D7;
  000925  :  EA44;
  000926  :  F467;
  000927  :  0EC1;
  000928  :  F712;
  000929  :  ECF2;
  00092A  :  1AC5;
  00092B  :  1C13;
  00092C  :  08F7;
  00092D  :  EDFF;
  00092E  :  FC43;
  00092F  :  D955;
  000930  :  03F6;
  000931  :  1130;
  000932  :  F37A;
  000933  :  0B04;
  000934  :  FE34;
  000935  :  DF33;
  000936  :  EF2C;
  000937  :  127E;
  000938  :  E7EB;
  000939  :  0C86;
  00093A  :  16DC;
  00093B  :  F97D;
  00093C  :  109F;
  00093D  :  EB54;
  00093E  :  F428;
  00093F  :  F725;
  000940  :  03EC;
  000941  :  02A3;
  000942  :  0D56;
  000943  :  F7C2;
  000944  :  E1EA;
  000945  :  FEF0;
  000946  :  EC31;
  000947  :  0EC4;
  000948  :  0580;
  000949  :  10C6;
  00094A  :  F055;
  00094B  :  0F4F;
  00094C  :  F12D;
  00094D  :  0770;
  00094E  :  FBA8;
  00094F  :  F5CF;
  000950  :  063F;
  000951  :  DC0C;
  000952  :  EEFC;
  000953  :  F3F9;
  000954  :  E962;
  000955  :  F6A4;
  000956  :  F089;
  000957  :  0CE7;
  000958  :  F598;
  000959  :  F743;
  00095A  :  ED8C;
  00095B  :  FE9A;
  00095C  :  100E;
  00095D  :  F8D8;
  00095E  :  0C9D;
  00095F  :  F745;
  000960  :  0B2C;
  000961  :  F864;
  000962  :  13BD;
  000963  :  F785;
  000964  :  FC07;
  000965  :  FE92;
  000966  :  00FD;
  000967  :  F55D;
  000968  :  E2AB;
  000969  :  06C8;
  00096A  :  0B14;
  00096B  :  EBBC;
  00096C  :  0476;
  00096D  :  13D0;
  00096E  :  F2C8;
  00096F  :  047C;
  000970  :  E3D8;
  000971  :  0C24;
  000972  :  0B54;
  000973  :  0C2A;
  000974  :  0EA2;
  000975  :  05FF;
  000976  :  F5F5;
  000977  :  082E;
  000978  :  FC43;
  000979  :  F3D5;
  00097A  :  0ACD;
  00097B  :  03C3;
  00097C  :  184D;
  00097D  :  EEFE;
  00097E  :  01B9;
  00097F  :  01B5;
  000980  :  E106;
  000981  :  1C7C;
  000982  :  0630;
  000983  :  F127;
  000984  :  F509;
  000985  :  0E59;
  000986  :  E60F;
  000987  :  FB20;
  000988  :  F4D7;
  000989  :  F3A0;
  00098A  :  F48B;
  00098B  :  0D39;
  00098C  :  1118;
  00098D  :  E971;
  00098E  :  FA9B;
  00098F  :  1173;
  000990  :  1633;
  000991  :  107C;
  000992  :  0CAD;
  000993  :  FF4C;
  000994  :  0534;
  000995  :  047D;
  000996  :  0B21;
  000997  :  DC9F;
  000998  :  0C56;
  000999  :  EE3A;
  00099A  :  F7F8;
  00099B  :  0937;
  00099C  :  F477;
  00099D  :  EE30;
  00099E  :  0679;
  00099F  :  FC6A;
  0009A0  :  EB54;
  0009A1  :  F6BF;
  0009A2  :  06FF;
  0009A3  :  24B9;
  0009A4  :  1603;
  0009A5  :  F69D;
  0009A6  :  FDA7;
  0009A7  :  01B3;
  0009A8  :  063A;
  0009A9  :  E475;
  0009AA  :  0F80;
  0009AB  :  0578;
  0009AC  :  FA3E;
  0009AD  :  F3D4;
  0009AE  :  FA2E;
  0009AF  :  E4BF;
  0009B0  :  0831;
  0009B1  :  EF77;
  0009B2  :  F8F7;
  0009B3  :  0D26;
  0009B4  :  FD02;
  0009B5  :  0870;
  0009B6  :  020B;
  0009B7  :  FF31;
  0009B8  :  133C;
  0009B9  :  1728;
  0009BA  :  06ED;
  0009BB  :  09F1;
  0009BC  :  1615;
  0009BD  :  06EB;
  0009BE  :  F85B;
  0009BF  :  07F6;
  0009C0  :  EAA8;
  0009C1  :  EA49;
  0009C2  :  F6C7;
  0009C3  :  0EEF;
  0009C4  :  EE21;
  0009C5  :  F833;
  0009C6  :  0544;
  0009C7  :  F80A;
  0009C8  :  F434;
  0009C9  :  E335;
  0009CA  :  E5FC;
  0009CB  :  FB2D;
  0009CC  :  DF8C;
  0009CD  :  E1D2;
  0009CE  :  F797;
  0009CF  :  0B79;
  0009D0  :  1269;
  0009D1  :  F17E;
  0009D2  :  F145;
  0009D3  :  13A9;
  0009D4  :  0803;
  0009D5  :  0C20;
  0009D6  :  1032;
  0009D7  :  F756;
  0009D8  :  096C;
  0009D9  :  0979;
  0009DA  :  1934;
  0009DB  :  05D3;
  0009DC  :  0F80;
  0009DD  :  0ABD;
  0009DE  :  F7F4;
  0009DF  :  FE58;
  0009E0  :  ED48;
  0009E1  :  F42D;
  0009E2  :  022D;
  0009E3  :  EE6B;
  0009E4  :  009C;
  0009E5  :  FBFE;
  0009E6  :  1343;
  0009E7  :  F7D3;
  0009E8  :  0656;
  0009E9  :  126D;
  0009EA  :  000D;
  0009EB  :  1069;
  0009EC  :  0F77;
  0009ED  :  0F77;
  0009EE  :  06BB;
  0009EF  :  0DD1;
  0009F0  :  0638;
  0009F1  :  FBE8;
  0009F2  :  04F8;
  0009F3  :  032E;
  0009F4  :  F1BF;
  0009F5  :  06A1;
  0009F6  :  01D9;
  0009F7  :  F6B3;
  0009F8  :  0DFD;
  0009F9  :  F8BB;
  0009FA  :  0D84;
  0009FB  :  0DFC;
  0009FC  :  FEF8;
  0009FD  :  F3FA;
  0009FE  :  F23F;
  0009FF  :  0135;
  000A00  :  ED74;
  000A01  :  F997;
  000A02  :  FDC9;
  000A03  :  FDBF;
  000A04  :  F945;
  000A05  :  0899;
  000A06  :  F1F4;
  000A07  :  09CD;
  000A08  :  F690;
  000A09  :  FA07;
  000A0A  :  EA58;
  000A0B  :  009E;
  000A0C  :  0977;
  000A0D  :  0294;
  000A0E  :  FB17;
  000A0F  :  005F;
  000A10  :  F176;
  000A11  :  0AB8;
  000A12  :  FCC3;
  000A13  :  0C8A;
  000A14  :  FFA8;
  000A15  :  170C;
  000A16  :  FB46;
  000A17  :  F616;
  000A18  :  E4B2;
  000A19  :  0578;
  000A1A  :  175E;
  000A1B  :  060B;
  000A1C  :  0EC0;
  000A1D  :  E823;
  000A1E  :  E871;
  000A1F  :  EA1E;
  000A20  :  0C7D;
  000A21  :  E21C;
  000A22  :  1476;
  000A23  :  1791;
  000A24  :  E7E6;
  000A25  :  029B;
  000A26  :  0898;
  000A27  :  0BD2;
  000A28  :  004C;
  000A29  :  EF8C;
  000A2A  :  EFFC;
  000A2B  :  DD31;
  000A2C  :  0EC5;
  000A2D  :  F1BD;
  000A2E  :  F044;
  000A2F  :  119F;
  000A30  :  F6D9;
  000A31  :  0C09;
  000A32  :  F6B7;
  000A33  :  F38E;
  000A34  :  0404;
  000A35  :  FAD7;
  000A36  :  FBCC;
  000A37  :  049D;
  000A38  :  ED75;
  000A39  :  EE9E;
  000A3A  :  0047;
  000A3B  :  FAC7;
  000A3C  :  FB16;
  000A3D  :  0C0F;
  000A3E  :  F92E;
  000A3F  :  EF0C;
  000A40  :  F700;
  000A41  :  E318;
  000A42  :  F92E;
  000A43  :  0D74;
  000A44  :  FAEB;
  000A45  :  0E6B;
  000A46  :  F97C;
  000A47  :  DEE5;
  000A48  :  0492;
  000A49  :  F6E1;
  000A4A  :  065E;
  000A4B  :  13DC;
  000A4C  :  0CAF;
  000A4D  :  EE1C;
  000A4E  :  FA1F;
  000A4F  :  12E9;
  000A50  :  DADA;
  000A51  :  0323;
  000A52  :  113B;
  000A53  :  FBD3;
  000A54  :  0CC9;
  000A55  :  14FE;
  000A56  :  0A03;
  000A57  :  F7DB;
  000A58  :  0B6F;
  000A59  :  0A41;
  000A5A  :  FDC7;
  000A5B  :  00A5;
  000A5C  :  0063;
  000A5D  :  0666;
  000A5E  :  05F0;
  000A5F  :  0AAF;
  000A60  :  123C;
  000A61  :  F2F4;
  000A62  :  F2E2;
  000A63  :  08EF;
  000A64  :  ED08;
  000A65  :  F65D;
  000A66  :  E621;
  000A67  :  0C4A;
  000A68  :  F6DC;
  000A69  :  F962;
  000A6A  :  FDF9;
  000A6B  :  F934;
  000A6C  :  0A9C;
  000A6D  :  0740;
  000A6E  :  02E9;
  000A6F  :  0AAB;
  000A70  :  FB5F;
  000A71  :  F76B;
  000A72  :  0548;
  000A73  :  EE4B;
  000A74  :  0B7E;
  000A75  :  0B82;
  000A76  :  F538;
  000A77  :  E394;
  000A78  :  0705;
  000A79  :  FE61;
  000A7A  :  F8BB;
  000A7B  :  F255;
  000A7C  :  E7BF;
  000A7D  :  FA91;
  000A7E  :  0DB3;
  000A7F  :  F3E4;
  000A80  :  169B;
  000A81  :  EF76;
  000A82  :  DE93;
  000A83  :  054F;
  000A84  :  DFCC;
  000A85  :  FE85;
  000A86  :  067A;
  000A87  :  F35A;
  000A88  :  0071;
  000A89  :  E2EC;
  000A8A  :  F2D9;
  000A8B  :  154B;
  000A8C  :  081A;
  000A8D  :  FF59;
  000A8E  :  FCA8;
  000A8F  :  FED0;
  000A90  :  E836;
  000A91  :  06DD;
  000A92  :  0554;
  000A93  :  08CF;
  000A94  :  00CB;
  000A95  :  04CC;
  000A96  :  F5C0;
  000A97  :  FB4E;
  000A98  :  0528;
  000A99  :  EA8A;
  000A9A  :  09CD;
  000A9B  :  09B1;
  000A9C  :  1033;
  000A9D  :  FB3C;
  000A9E  :  FF59;
  000A9F  :  0052;
  000AA0  :  F026;
  000AA1  :  FFD1;
  000AA2  :  0079;
  000AA3  :  FA87;
  000AA4  :  EC8A;
  000AA5  :  E549;
  000AA6  :  180F;
  000AA7  :  F142;
  000AA8  :  F2FA;
  000AA9  :  E926;
  000AAA  :  0928;
  000AAB  :  0973;
  000AAC  :  0352;
  000AAD  :  0854;
  000AAE  :  EE6E;
  000AAF  :  0A55;
  000AB0  :  0360;
  000AB1  :  FB4C;
  000AB2  :  06E1;
  000AB3  :  1DE6;
  000AB4  :  0C1C;
  000AB5  :  0FF5;
  000AB6  :  E840;
  000AB7  :  E958;
  000AB8  :  F4CA;
  000AB9  :  04B3;
  000ABA  :  04AC;
  000ABB  :  15C5;
  000ABC  :  1BA8;
  000ABD  :  08D2;
  000ABE  :  109C;
  000ABF  :  E819;
  000AC0  :  FD80;
  000AC1  :  0E24;
  000AC2  :  F917;
  000AC3  :  EF38;
  000AC4  :  E6B8;
  000AC5  :  04B4;
  000AC6  :  E348;
  000AC7  :  04D3;
  000AC8  :  1C05;
  000AC9  :  0A9F;
  000ACA  :  0FE7;
  000ACB  :  183F;
  000ACC  :  1551;
  000ACD  :  058B;
  000ACE  :  0946;
  000ACF  :  11A0;
  000AD0  :  0A8A;
  000AD1  :  0CA5;
  000AD2  :  02FC;
  000AD3  :  E90D;
  000AD4  :  FC8E;
  000AD5  :  01D4;
  000AD6  :  F6B1;
  000AD7  :  09C1;
  000AD8  :  FBC0;
  000AD9  :  EC8C;
  000ADA  :  1431;
  000ADB  :  0016;
  000ADC  :  0339;
  000ADD  :  08A2;
  000ADE  :  01D2;
  000ADF  :  E733;
  000AE0  :  13D5;
  000AE1  :  0BEB;
  000AE2  :  016D;
  000AE3  :  19B0;
  000AE4  :  0EB4;
  000AE5  :  0AE7;
  000AE6  :  EC40;
  000AE7  :  015B;
  000AE8  :  06E7;
  000AE9  :  0EEC;
  000AEA  :  FE8D;
  000AEB  :  FDCB;
  000AEC  :  F847;
  000AED  :  1AA4;
  000AEE  :  0857;
  000AEF  :  0B8F;
  000AF0  :  0853;
  000AF1  :  08CA;
  000AF2  :  0EAE;
  000AF3  :  1024;
  000AF4  :  F839;
  000AF5  :  06E8;
  000AF6  :  0A44;
  000AF7  :  F88B;
  000AF8  :  E8C6;
  000AF9  :  032B;
  000AFA  :  07D9;
  000AFB  :  0479;
  000AFC  :  1A55;
  000AFD  :  0577;
  000AFE  :  DEAB;
  000AFF  :  FDB5;
  000B00  :  0D57;
  000B01  :  FE85;
  000B02  :  FFDA;
  000B03  :  D637;
  000B04  :  0942;
  000B05  :  FF0D;
  000B06  :  03C1;
  000B07  :  E628;
  000B08  :  FC35;
  000B09  :  1CF5;
  000B0A  :  F842;
  000B0B  :  F295;
  000B0C  :  0053;
  000B0D  :  0DD2;
  000B0E  :  DC93;
  000B0F  :  0104;
  000B10  :  FC18;
  000B11  :  060D;
  000B12  :  006F;
  000B13  :  E59C;
  000B14  :  F458;
  000B15  :  E94C;
  000B16  :  195E;
  000B17  :  EBB4;
  000B18  :  F240;
  000B19  :  00F2;
  000B1A  :  F91C;
  000B1B  :  01D6;
  000B1C  :  F9EF;
  000B1D  :  0871;
  000B1E  :  104F;
  000B1F  :  F0F8;
  000B20  :  0665;
  000B21  :  1769;
  000B22  :  1876;
  000B23  :  FEAA;
  000B24  :  0558;
  000B25  :  04CC;
  000B26  :  0A21;
  000B27  :  F08B;
  000B28  :  E621;
  000B29  :  1ADD;
  000B2A  :  F821;
  000B2B  :  156D;
  000B2C  :  09D7;
  000B2D  :  FD27;
  000B2E  :  073D;
  000B2F  :  F039;
  000B30  :  1B37;
  000B31  :  ED78;
  000B32  :  0607;
  000B33  :  E31B;
  000B34  :  E1A0;
  000B35  :  14FA;
  000B36  :  F8B7;
  000B37  :  0A54;
  000B38  :  FAFF;
  000B39  :  0361;
  000B3A  :  F8AE;
  000B3B  :  EECF;
  000B3C  :  DE1A;
  000B3D  :  F728;
  000B3E  :  10B8;
  000B3F  :  1ACA;
  000B40  :  EDE6;
  000B41  :  1CB6;
  000B42  :  0C9C;
  000B43  :  0904;
  000B44  :  F56C;
  000B45  :  DDD1;
  000B46  :  115E;
  000B47  :  E961;
  000B48  :  1BFE;
  000B49  :  E1B8;
  000B4A  :  EDB6;
  000B4B  :  15F5;
  000B4C  :  0901;
  000B4D  :  FC49;
  000B4E  :  01FB;
  000B4F  :  F611;
  000B50  :  F971;
  000B51  :  FE4D;
  000B52  :  1512;
  000B53  :  01BD;
  000B54  :  1DC1;
  000B55  :  071A;
  000B56  :  F30F;
  000B57  :  042C;
  000B58  :  F08C;
  000B59  :  E34E;
  000B5A  :  15DD;
  000B5B  :  049A;
  000B5C  :  FE0E;
  000B5D  :  0DCE;
  000B5E  :  0FDB;
  000B5F  :  F426;
  000B60  :  030A;
  000B61  :  0461;
  000B62  :  EE5E;
  000B63  :  0575;
  000B64  :  F5E3;
  000B65  :  1BB0;
  000B66  :  0FFF;
  000B67  :  F882;
  000B68  :  02FC;
  000B69  :  E4B4;
  000B6A  :  0A8E;
  000B6B  :  01AB;
  000B6C  :  0C8B;
  000B6D  :  081B;
  000B6E  :  0CDE;
  000B6F  :  EA0A;
  000B70  :  F7BE;
  000B71  :  E154;
  000B72  :  FE5E;
  000B73  :  FEDE;
  000B74  :  0E4A;
  000B75  :  E396;
  000B76  :  072C;
  000B77  :  0975;
  000B78  :  F0AD;
  000B79  :  0274;
  000B7A  :  FD88;
  000B7B  :  0B43;
  000B7C  :  0A7E;
  000B7D  :  F862;
  000B7E  :  E8B0;
  000B7F  :  F646;
  000B80  :  F90D;
  000B81  :  FD6E;
  000B82  :  F40D;
  000B83  :  E4DD;
  000B84  :  FCE7;
  000B85  :  F407;
  000B86  :  EF31;
  000B87  :  127E;
  000B88  :  F6E3;
  000B89  :  072E;
  000B8A  :  06FF;
  000B8B  :  E5DA;
  000B8C  :  F048;
  000B8D  :  F2F3;
  000B8E  :  031E;
  000B8F  :  FED9;
  000B90  :  E492;
  000B91  :  EE49;
  000B92  :  12A6;
  000B93  :  03BC;
  000B94  :  0321;
  000B95  :  044F;
  000B96  :  0EA7;
  000B97  :  E4A9;
  000B98  :  0B29;
  000B99  :  0D1A;
  000B9A  :  EAF5;
  000B9B  :  FA03;
  000B9C  :  08D8;
  000B9D  :  0DC1;
  000B9E  :  185A;
  000B9F  :  F676;
  000BA0  :  EC0E;
  000BA1  :  F913;
  000BA2  :  E337;
  000BA3  :  ED58;
  000BA4  :  FCAF;
  000BA5  :  F83E;
  000BA6  :  F7B3;
  000BA7  :  0F32;
  000BA8  :  198D;
  000BA9  :  0DC2;
  000BAA  :  0AE7;
  000BAB  :  047F;
  000BAC  :  0F18;
  000BAD  :  10D8;
  000BAE  :  F8B6;
  000BAF  :  F237;
  000BB0  :  05DF;
  000BB1  :  F2FA;
  000BB2  :  E17C;
  000BB3  :  F6EE;
  000BB4  :  0358;
  000BB5  :  04A0;
  000BB6  :  0AA5;
  000BB7  :  04BD;
  000BB8  :  F37E;
  000BB9  :  E563;
  000BBA  :  FF6D;
  000BBB  :  0AB9;
  000BBC  :  091F;
  000BBD  :  FB25;
  000BBE  :  0C3B;
  000BBF  :  FC21;
  000BC0  :  FD02;
  000BC1  :  EDEF;
  000BC2  :  0824;
  000BC3  :  FDAC;
  000BC4  :  E6FA;
  000BC5  :  F193;
  000BC6  :  F188;
  000BC7  :  0D1E;
  000BC8  :  F8CC;
  000BC9  :  0516;
  000BCA  :  EB2E;
  000BCB  :  176A;
  000BCC  :  F911;
  000BCD  :  EE1C;
  000BCE  :  03F2;
  000BCF  :  FC0E;
  000BD0  :  FE60;
  000BD1  :  F8DB;
  000BD2  :  E8E3;
  000BD3  :  0128;
  000BD4  :  0500;
  000BD5  :  FA8A;
  000BD6  :  0D79;
  000BD7  :  EEFF;
  000BD8  :  19DE;
  000BD9  :  20DB;
  000BDA  :  057E;
  000BDB  :  E690;
  000BDC  :  1355;
  000BDD  :  F2A3;
  000BDE  :  0753;
  000BDF  :  07B4;
  000BE0  :  0D34;
  000BE1  :  E90A;
  000BE2  :  05A1;
  000BE3  :  03B6;
  000BE4  :  FA2A;
  000BE5  :  094A;
  000BE6  :  1875;
  000BE7  :  07AD;
  000BE8  :  EBD2;
  000BE9  :  0D0C;
  000BEA  :  EB0F;
  000BEB  :  ED46;
  000BEC  :  126C;
  000BED  :  E2EC;
  000BEE  :  0315;
  000BEF  :  E168;
  000BF0  :  F1E1;
  000BF1  :  08CD;
  000BF2  :  016E;
  000BF3  :  00EF;
  000BF4  :  1243;
  000BF5  :  0146;
  000BF6  :  FA55;
  000BF7  :  0F3C;
  000BF8  :  059B;
  000BF9  :  0ADE;
  000BFA  :  FBF8;
  000BFB  :  EB42;
  000BFC  :  F9A1;
  000BFD  :  EF59;
  000BFE  :  0D04;
  000BFF  :  F28D;
  000C00  :  F2C7;
  000C01  :  F301;
  000C02  :  02C1;
  000C03  :  0593;
  000C04  :  EEC5;
  000C05  :  FDC6;
  000C06  :  0789;
  000C07  :  EB5D;
  000C08  :  0E14;
  000C09  :  F7C5;
  000C0A  :  FFC2;
  000C0B  :  0126;
  000C0C  :  1667;
  000C0D  :  0D66;
  000C0E  :  0759;
  000C0F  :  0029;
  000C10  :  F5A4;
  000C11  :  04C1;
  000C12  :  024B;
  000C13  :  ECEA;
  000C14  :  FBF2;
  000C15  :  E38F;
  000C16  :  ECC6;
  000C17  :  021D;
  000C18  :  012E;
  000C19  :  FABB;
  000C1A  :  07BE;
  000C1B  :  E912;
  000C1C  :  0167;
  000C1D  :  FDA0;
  000C1E  :  FBD7;
  000C1F  :  F20A;
  000C20  :  F065;
  000C21  :  0A57;
  000C22  :  073F;
  000C23  :  0F3A;
  000C24  :  E7DE;
  000C25  :  F32A;
  000C26  :  0C76;
  000C27  :  E220;
  000C28  :  F9C8;
  000C29  :  FE50;
  000C2A  :  FA9A;
  000C2B  :  FF0E;
  000C2C  :  EA58;
  000C2D  :  F4D3;
  000C2E  :  1493;
  000C2F  :  0BDC;
  000C30  :  F19E;
  000C31  :  040A;
  000C32  :  0311;
  000C33  :  FDF9;
  000C34  :  E3CD;
  000C35  :  E579;
  000C36  :  F8D9;
  000C37  :  F571;
  000C38  :  0463;
  000C39  :  F627;
  000C3A  :  FBC9;
  000C3B  :  01B9;
  000C3C  :  0B54;
  000C3D  :  173A;
  000C3E  :  F22B;
  000C3F  :  F3B3;
  000C40  :  FE6F;
  000C41  :  FFA9;
  000C42  :  120C;
  000C43  :  0097;
  000C44  :  F157;
  000C45  :  EF87;
  000C46  :  F80D;
  000C47  :  05AF;
  000C48  :  EE2D;
  000C49  :  F8E1;
  000C4A  :  125D;
  000C4B  :  FA2C;
  000C4C  :  E4EE;
  000C4D  :  FCFC;
  000C4E  :  EC09;
  000C4F  :  FA98;
  000C50  :  12B3;
  000C51  :  F8A0;
  000C52  :  0713;
  000C53  :  0429;
  000C54  :  05CA;
  000C55  :  05DC;
  000C56  :  07D8;
  000C57  :  F360;
  000C58  :  08F2;
  000C59  :  EAE7;
  000C5A  :  EDC2;
  000C5B  :  E9DE;
  000C5C  :  0319;
  000C5D  :  0353;
  000C5E  :  E871;
  000C5F  :  F276;
  000C60  :  02AC;
  000C61  :  E853;
  000C62  :  1573;
  000C63  :  FBF6;
  000C64  :  0BF5;
  000C65  :  FEC4;
  000C66  :  FDAE;
  000C67  :  FDBA;
  000C68  :  FB97;
  000C69  :  0063;
  000C6A  :  01DF;
  000C6B  :  08AB;
  000C6C  :  064A;
  000C6D  :  0475;
  000C6E  :  02AA;
  000C6F  :  FC7E;
  000C70  :  F71A;
  000C71  :  F466;
  000C72  :  F34E;
  000C73  :  EDD4;
  000C74  :  00F9;
  000C75  :  02F5;
  000C76  :  07B3;
  000C77  :  EDCD;
  000C78  :  EA17;
  000C79  :  FC96;
  000C7A  :  0923;
  000C7B  :  1481;
  000C7C  :  F502;
  000C7D  :  0282;
  000C7E  :  EB91;
  000C7F  :  F8FB;
  000C80  :  F907;
  000C81  :  E3B9;
  000C82  :  1110;
  000C83  :  1281;
  000C84  :  0062;
  000C85  :  09C9;
  000C86  :  0F04;
  000C87  :  EDC9;
  000C88  :  0A7D;
  000C89  :  0A36;
  000C8A  :  10EF;
  000C8B  :  FF73;
  000C8C  :  0B16;
  000C8D  :  E2B2;
  000C8E  :  0C2E;
  000C8F  :  FFE4;
  000C90  :  FCDF;
  000C91  :  F398;
  000C92  :  E51E;
  000C93  :  F459;
  000C94  :  FE27;
  000C95  :  EA89;
  000C96  :  1011;
  000C97  :  1831;
  000C98  :  1C46;
  000C99  :  015C;
  000C9A  :  F11E;
  000C9B  :  052D;
  000C9C  :  0847;
  000C9D  :  EDF0;
  000C9E  :  FE50;
  000C9F  :  F6AE;
  000CA0  :  EAAF;
  000CA1  :  FB84;
  000CA2  :  FCB6;
  000CA3  :  FBA8;
  000CA4  :  FAA2;
  000CA5  :  E852;
  000CA6  :  F74C;
  000CA7  :  0790;
  000CA8  :  02EE;
  000CA9  :  EF12;
  000CAA  :  F376;
  000CAB  :  0B07;
  000CAC  :  F4E8;
  000CAD  :  0A36;
  000CAE  :  F9F8;
  000CAF  :  EE4C;
  000CB0  :  EC8C;
  000CB1  :  0992;
  000CB2  :  F7A1;
  000CB3  :  FA44;
  000CB4  :  0C3E;
  000CB5  :  FCD4;
  000CB6  :  0BAB;
  000CB7  :  EEB2;
  000CB8  :  22E4;
  000CB9  :  029F;
  000CBA  :  F4E0;
  000CBB  :  06FA;
  000CBC  :  08A7;
  000CBD  :  E3FA;
  000CBE  :  06CB;
  000CBF  :  EA4F;
  000CC0  :  F140;
  000CC1  :  0C65;
  000CC2  :  EB05;
  000CC3  :  E8F8;
  000CC4  :  EF5B;
  000CC5  :  F746;
  000CC6  :  02DD;
  000CC7  :  F8C8;
  000CC8  :  FCC4;
  000CC9  :  EEC5;
  000CCA  :  EBCE;
  000CCB  :  FEB7;
  000CCC  :  02D0;
  000CCD  :  07BE;
  000CCE  :  0A9B;
  000CCF  :  F47D;
  000CD0  :  E7D5;
  000CD1  :  F8AA;
  000CD2  :  08EE;
  000CD3  :  05B3;
  000CD4  :  E777;
  000CD5  :  F404;
  000CD6  :  0B21;
  000CD7  :  0DBE;
  000CD8  :  0222;
  000CD9  :  1561;
  000CDA  :  F9F0;
  000CDB  :  EBBC;
  000CDC  :  FB63;
  000CDD  :  EE04;
  000CDE  :  0451;
  000CDF  :  07E6;
  000CE0  :  15A5;
  000CE1  :  0AF6;
  000CE2  :  0952;
  000CE3  :  084C;
  000CE4  :  0A1E;
  000CE5  :  E4E5;
  000CE6  :  EEA9;
  000CE7  :  0563;
  000CE8  :  0763;
  000CE9  :  FD2B;
  000CEA  :  F487;
  000CEB  :  04F9;
  000CEC  :  0BDF;
  000CED  :  0A81;
  000CEE  :  07EA;
  000CEF  :  06E6;
  000CF0  :  E8D3;
  000CF1  :  098A;
  000CF2  :  F299;
  000CF3  :  FEC0;
  000CF4  :  0B82;
  000CF5  :  F5F6;
  000CF6  :  0551;
  000CF7  :  F549;
  000CF8  :  0C6E;
  000CF9  :  09B4;
  000CFA  :  F6FB;
  000CFB  :  0421;
  000CFC  :  0015;
  000CFD  :  FF81;
  000CFE  :  EDAE;
  000CFF  :  F6F1;
  000D00  :  0647;
  000D01  :  F886;
  000D02  :  01EA;
  000D03  :  12B7;
  000D04  :  EF7D;
  000D05  :  F4D8;
  000D06  :  E95F;
  000D07  :  0E4D;
  000D08  :  FA7B;
  000D09  :  0CFE;
  000D0A  :  1253;
  000D0B  :  01C2;
  000D0C  :  04E9;
  000D0D  :  0030;
  000D0E  :  E44F;
  000D0F  :  E562;
  000D10  :  00A7;
  000D11  :  0909;
  000D12  :  125A;
  000D13  :  01DE;
  000D14  :  1276;
  000D15  :  FC45;
  000D16  :  1453;
  000D17  :  FDA6;
  000D18  :  EB27;
  000D19  :  EC86;
  000D1A  :  E6A1;
  000D1B  :  F7D7;
  000D1C  :  0C7C;
  000D1D  :  0BD1;
  000D1E  :  EEB2;
  000D1F  :  E850;
  000D20  :  0051;
  000D21  :  F562;
  000D22  :  DEC9;
  000D23  :  FA0F;
  000D24  :  1105;
  000D25  :  F01F;
  000D26  :  FEC9;
  000D27  :  FD13;
  000D28  :  F0D5;
  000D29  :  FE69;
  000D2A  :  ED13;
  000D2B  :  0BB1;
  000D2C  :  0233;
  000D2D  :  F0C3;
  000D2E  :  E34C;
  000D2F  :  F234;
  000D30  :  F616;
  000D31  :  0D28;
  000D32  :  E181;
  000D33  :  EE8E;
  000D34  :  EEAD;
  000D35  :  0679;
  000D36  :  FB8A;
  000D37  :  E65F;
  000D38  :  F8A7;
  000D39  :  FBD4;
  000D3A  :  ED05;
  000D3B  :  F8CE;
  000D3C  :  17BE;
  000D3D  :  0A91;
  000D3E  :  EFBE;
  000D3F  :  F420;
  000D40  :  F57D;
  000D41  :  0023;
  000D42  :  E1C0;
  000D43  :  F285;
  000D44  :  1190;
  000D45  :  00AC;
  000D46  :  163D;
  000D47  :  0571;
  000D48  :  E9D3;
  000D49  :  E97C;
  000D4A  :  FE7D;
  000D4B  :  E8BA;
  000D4C  :  1271;
  000D4D  :  F2F0;
  000D4E  :  EC95;
  000D4F  :  01A3;
  000D50  :  FC65;
  000D51  :  F040;
  000D52  :  08AE;
  000D53  :  0350;
  000D54  :  FBA4;
  000D55  :  03B6;
  000D56  :  EE62;
  000D57  :  ED7C;
  000D58  :  FFF7;
  000D59  :  EFA1;
  000D5A  :  0D38;
  000D5B  :  E76E;
  000D5C  :  0F33;
  000D5D  :  059A;
  000D5E  :  0874;
  000D5F  :  EA88;
  000D60  :  0839;
  000D61  :  0BFD;
  000D62  :  F549;
  000D63  :  02DD;
  000D64  :  FF13;
  000D65  :  FAEA;
  000D66  :  F299;
  000D67  :  1170;
  000D68  :  0AC2;
  000D69  :  F9B6;
  000D6A  :  016E;
  000D6B  :  0759;
  000D6C  :  DFC8;
  000D6D  :  03A5;
  000D6E  :  0330;
  000D6F  :  F127;
  000D70  :  0F2B;
  000D71  :  FDE1;
  000D72  :  F603;
  000D73  :  04E6;
  000D74  :  E7BA;
  000D75  :  F21D;
  000D76  :  126B;
  000D77  :  03A5;
  000D78  :  02E4;
  000D79  :  0318;
  000D7A  :  05DB;
  000D7B  :  0DDB;
  000D7C  :  0773;
  000D7D  :  F890;
  000D7E  :  F11A;
  000D7F  :  FD24;
  000D80  :  E6E5;
  000D81  :  0D2F;
  000D82  :  02C2;
  000D83  :  EF94;
  000D84  :  E4AE;
  000D85  :  096C;
  000D86  :  EA75;
  000D87  :  F9EA;
  000D88  :  E517;
  000D89  :  0564;
  000D8A  :  F6AC;
  000D8B  :  00BC;
  000D8C  :  0587;
  000D8D  :  EEE4;
  000D8E  :  E8CC;
  000D8F  :  FEBF;
  000D90  :  0394;
  000D91  :  0C65;
  000D92  :  0E2A;
  000D93  :  F794;
  000D94  :  EF60;
  000D95  :  F1C9;
  000D96  :  EF0C;
  000D97  :  0A72;
  000D98  :  0868;
  000D99  :  F9F7;
  000D9A  :  F759;
  000D9B  :  F99C;
  000D9C  :  F92A;
  000D9D  :  FE72;
  000D9E  :  EFBA;
  000D9F  :  DA45;
  000DA0  :  FAA2;
  000DA1  :  FE23;
  000DA2  :  E6CA;
  000DA3  :  FF09;
  000DA4  :  0288;
  000DA5  :  0E46;
  000DA6  :  F55E;
  000DA7  :  F6FD;
  000DA8  :  0CD3;
  000DA9  :  0B1D;
  000DAA  :  02AC;
  000DAB  :  F1F7;
  000DAC  :  DE88;
  000DAD  :  044C;
  000DAE  :  FEDB;
  000DAF  :  EE7D;
  000DB0  :  1398;
  000DB1  :  0872;
  000DB2  :  0A3B;
  000DB3  :  01AF;
  000DB4  :  EFCF;
  000DB5  :  F2C2;
  000DB6  :  F732;
  000DB7  :  FC29;
  000DB8  :  E62F;
  000DB9  :  0A93;
  000DBA  :  0005;
  000DBB  :  FA05;
  000DBC  :  F63D;
  000DBD  :  035E;
  000DBE  :  083A;
  000DBF  :  07DC;
  000DC0  :  FEA2;
  000DC1  :  F824;
  000DC2  :  19E9;
  000DC3  :  0624;
  000DC4  :  FF44;
  000DC5  :  E446;
  000DC6  :  FC99;
  000DC7  :  1CB5;
  000DC8  :  F148;
  000DC9  :  F4BB;
  000DCA  :  0C5C;
  000DCB  :  EDE1;
  000DCC  :  0E24;
  000DCD  :  FBD0;
  000DCE  :  FE98;
  000DCF  :  FBF7;
  000DD0  :  F4FB;
  000DD1  :  F74F;
  000DD2  :  FA3F;
  000DD3  :  013D;
  000DD4  :  0D72;
  000DD5  :  03F6;
  000DD6  :  1609;
  000DD7  :  02FE;
  000DD8  :  029C;
  000DD9  :  07C2;
  000DDA  :  0FE2;
  000DDB  :  F6E8;
  000DDC  :  F839;
  000DDD  :  F22D;
  000DDE  :  FACA;
  000DDF  :  F664;
  000DE0  :  F445;
  000DE1  :  0A09;
  000DE2  :  0BBD;
  000DE3  :  0B5A;
  000DE4  :  FB9C;
  000DE5  :  EB56;
  000DE6  :  F798;
  000DE7  :  F388;
  000DE8  :  EBD5;
  000DE9  :  08D7;
  000DEA  :  F4DD;
  000DEB  :  148A;
  000DEC  :  0C4C;
  000DED  :  09B3;
  000DEE  :  E532;
  000DEF  :  F06D;
  000DF0  :  F934;
  000DF1  :  FF76;
  000DF2  :  0E3D;
  000DF3  :  18CB;
  000DF4  :  0516;
  000DF5  :  0872;
  000DF6  :  FDFD;
  000DF7  :  FF16;
  000DF8  :  0867;
  000DF9  :  F749;
  000DFA  :  0CFF;
  000DFB  :  0263;
  000DFC  :  1666;
  000DFD  :  F3AF;
  000DFE  :  FA5C;
  000DFF  :  F2AE;
  000E00  :  FB1C;
  000E01  :  F148;
  000E02  :  F26B;
  000E03  :  0173;
  000E04  :  FE12;
  000E05  :  2386;
  000E06  :  F8E3;
  000E07  :  FB91;
  000E08  :  EC05;
  000E09  :  FA79;
  000E0A  :  FEAF;
  000E0B  :  0932;
  000E0C  :  135F;
  000E0D  :  FEAA;
  000E0E  :  0C92;
  000E0F  :  FCA1;
  000E10  :  0147;
  000E11  :  0915;
  000E12  :  1A3E;
  000E13  :  030C;
  000E14  :  EF19;
  000E15  :  EA82;
  000E16  :  042D;
  000E17  :  F615;
  000E18  :  036A;
  000E19  :  0B91;
  000E1A  :  FBA1;
  000E1B  :  0D8F;
  000E1C  :  F114;
  000E1D  :  099A;
  000E1E  :  132E;
  000E1F  :  0686;
  000E20  :  0FCA;
  000E21  :  F2B2;
  000E22  :  0577;
  000E23  :  0D6F;
  000E24  :  F6A4;
  000E25  :  10AC;
  000E26  :  003D;
  000E27  :  05B9;
  000E28  :  EFC9;
  000E29  :  02B7;
  000E2A  :  FD88;
  000E2B  :  1782;
  000E2C  :  0470;
  000E2D  :  1FF3;
  000E2E  :  008A;
  000E2F  :  E4F7;
  000E30  :  0E26;
  000E31  :  FCA0;
  000E32  :  F0F9;
  000E33  :  E613;
  000E34  :  EADA;
  000E35  :  EE05;
  000E36  :  EF40;
  000E37  :  1031;
  000E38  :  F785;
  000E39  :  068F;
  000E3A  :  EB73;
  000E3B  :  09FA;
  000E3C  :  1461;
  000E3D  :  06B4;
  000E3E  :  FE26;
  000E3F  :  EC51;
  000E40  :  F8DF;
  000E41  :  0E8D;
  000E42  :  F616;
  000E43  :  003D;
  000E44  :  0381;
  000E45  :  F8C5;
  000E46  :  E7CB;
  000E47  :  F13D;
  000E48  :  FB2B;
  000E49  :  1AC3;
  000E4A  :  0651;
  000E4B  :  019F;
  000E4C  :  F2E6;
  000E4D  :  062E;
  000E4E  :  0A17;
  000E4F  :  EA28;
  000E50  :  053B;
  000E51  :  07F9;
  000E52  :  DCF3;
  000E53  :  0AD4;
  000E54  :  02B3;
  000E55  :  01ED;
  000E56  :  F205;
  000E57  :  124F;
  000E58  :  F92C;
  000E59  :  FD58;
  000E5A  :  E54B;
  000E5B  :  0515;
  000E5C  :  15EE;
  000E5D  :  FE03;
  000E5E  :  0FD9;
  000E5F  :  EEA1;
  000E60  :  05D9;
  000E61  :  06AC;
  000E62  :  F7A8;
  000E63  :  164F;
  000E64  :  FEFF;
  000E65  :  0289;
  000E66  :  FCE8;
  000E67  :  1259;
  000E68  :  E659;
  000E69  :  00D2;
  000E6A  :  0A7F;
  000E6B  :  FE7D;
  000E6C  :  03DD;
  000E6D  :  F3A5;
  000E6E  :  F58D;
  000E6F  :  159B;
  000E70  :  0139;
  000E71  :  F6D5;
  000E72  :  01AC;
  000E73  :  062D;
  000E74  :  EEEB;
  000E75  :  F7E2;
  000E76  :  FA2D;
  000E77  :  FD72;
  000E78  :  E538;
  000E79  :  1B69;
  000E7A  :  F69E;
  000E7B  :  F274;
  000E7C  :  E87B;
  000E7D  :  045E;
  000E7E  :  FE1D;
  000E7F  :  E5B5;
  000E80  :  FBEF;
  000E81  :  0AA8;
  000E82  :  0EEF;
  000E83  :  EFCE;
  000E84  :  F2F1;
  000E85  :  FB8C;
  000E86  :  148E;
  000E87  :  F022;
  000E88  :  09A6;
  000E89  :  EF1F;
  000E8A  :  F31B;
  000E8B  :  03B0;
  000E8C  :  0DC1;
  000E8D  :  EEA8;
  000E8E  :  070D;
  000E8F  :  0A9B;
  000E90  :  E288;
  000E91  :  0DDA;
  000E92  :  E197;
  000E93  :  0069;
  000E94  :  0527;
  000E95  :  0481;
  000E96  :  EF7D;
  000E97  :  1E9A;
  000E98  :  084E;
  000E99  :  EDBF;
  000E9A  :  0568;
  000E9B  :  FF86;
  000E9C  :  E9D9;
  000E9D  :  0B67;
  000E9E  :  0B07;
  000E9F  :  086D;
  000EA0  :  F0C1;
  000EA1  :  F374;
  000EA2  :  EAE4;
  000EA3  :  E47D;
  000EA4  :  0D4C;
  000EA5  :  F9C4;
  000EA6  :  FE2C;
  000EA7  :  E571;
  000EA8  :  03B9;
  000EA9  :  FFD9;
  000EAA  :  1174;
  000EAB  :  0DC9;
  000EAC  :  0B8D;
  000EAD  :  0D59;
  000EAE  :  0BD1;
  000EAF  :  FF2C;
  000EB0  :  E83D;
  000EB1  :  E743;
  000EB2  :  FCC0;
  000EB3  :  F842;
  000EB4  :  1247;
  000EB5  :  0569;
  000EB6  :  07BF;
  000EB7  :  11A1;
  000EB8  :  FC04;
  000EB9  :  FA82;
  000EBA  :  14D1;
  000EBB  :  FB8F;
  000EBC  :  0871;
  000EBD  :  0D49;
  000EBE  :  09CF;
  000EBF  :  0A02;
  000EC0  :  F80A;
  000EC1  :  EF58;
  000EC2  :  087A;
  000EC3  :  1245;
  000EC4  :  EE23;
  000EC5  :  F416;
  000EC6  :  EBCA;
  000EC7  :  F667;
  000EC8  :  11A0;
  000EC9  :  04EF;
  000ECA  :  0DE1;
  000ECB  :  F334;
  000ECC  :  0360;
  000ECD  :  EDAD;
  000ECE  :  EEB8;
  000ECF  :  EDB2;
  000ED0  :  0EA6;
  000ED1  :  E844;
  000ED2  :  F1E9;
  000ED3  :  05CB;
  000ED4  :  E999;
  000ED5  :  EA8C;
  000ED6  :  EF3F;
  000ED7  :  DECA;
  000ED8  :  F175;
  000ED9  :  E996;
  000EDA  :  F208;
  000EDB  :  05DE;
  000EDC  :  07C9;
  000EDD  :  EEE9;
  000EDE  :  EF77;
  000EDF  :  F87D;
  000EE0  :  F587;
  000EE1  :  EE34;
  000EE2  :  0440;
  000EE3  :  049F;
  000EE4  :  FCAF;
  000EE5  :  E9DF;
  000EE6  :  0B48;
  000EE7  :  0564;
  000EE8  :  146A;
  000EE9  :  F7E1;
  000EEA  :  FD25;
  000EEB  :  F35E;
  000EEC  :  F638;
  000EED  :  138F;
  000EEE  :  E253;
  000EEF  :  EA6F;
  000EF0  :  F16E;
  000EF1  :  F35B;
  000EF2  :  00F5;
  000EF3  :  0064;
  000EF4  :  E633;
  000EF5  :  ED19;
  000EF6  :  13A5;
  000EF7  :  F11A;
  000EF8  :  012B;
  000EF9  :  F548;
  000EFA  :  E186;
  000EFB  :  0D3D;
  000EFC  :  EEDD;
  000EFD  :  0D6D;
  000EFE  :  EEF6;
  000EFF  :  067A;
  000F00  :  0C9E;
  000F01  :  0C5E;
  000F02  :  151E;
  000F03  :  FD2A;
  000F04  :  F64E;
  000F05  :  EBD9;
  000F06  :  F3CF;
  000F07  :  F878;
  000F08  :  EBFA;
  000F09  :  0CBE;
  000F0A  :  0533;
  000F0B  :  E928;
  000F0C  :  0076;
  000F0D  :  0748;
  000F0E  :  00E8;
  000F0F  :  072A;
  000F10  :  0A93;
  000F11  :  0045;
  000F12  :  FE54;
  000F13  :  EAB8;
  000F14  :  F4CF;
  000F15  :  FBB6;
  000F16  :  F803;
  000F17  :  FDBC;
  000F18  :  05D8;
  000F19  :  F674;
  000F1A  :  15E5;
  000F1B  :  0B0A;
  000F1C  :  08EE;
  000F1D  :  07E9;
  000F1E  :  060C;
  000F1F  :  F87E;
  000F20  :  E087;
  000F21  :  F969;
  000F22  :  01E0;
  000F23  :  0903;
  000F24  :  EAFA;
  000F25  :  0876;
  000F26  :  0EFD;
  000F27  :  FCE1;
  000F28  :  0400;
  000F29  :  E667;
  000F2A  :  08E1;
  000F2B  :  F310;
  000F2C  :  0766;
  000F2D  :  EC96;
  000F2E  :  0BF1;
  000F2F  :  FE09;
  000F30  :  0219;
  000F31  :  E9D9;
  000F32  :  E114;
  000F33  :  0295;
  000F34  :  FFE6;
  000F35  :  F5EF;
  000F36  :  1385;
  000F37  :  E450;
  000F38  :  1141;
  000F39  :  13EE;
  000F3A  :  F94F;
  000F3B  :  E247;
  000F3C  :  F60D;
  000F3D  :  F96D;
  000F3E  :  F3B1;
  000F3F  :  01AA;
  000F40  :  0312;
  000F41  :  103B;
  000F42  :  ED31;
  000F43  :  1062;
  000F44  :  160E;
  000F45  :  0287;
  000F46  :  022F;
  000F47  :  F923;
  000F48  :  0E67;
  000F49  :  0981;
  000F4A  :  E11D;
  000F4B  :  EE1D;
  000F4C  :  1218;
  000F4D  :  082C;
  000F4E  :  E3F0;
  000F4F  :  0822;
  000F50  :  0740;
  000F51  :  F4BC;
  000F52  :  0211;
  000F53  :  F9F4;
  000F54  :  E7D0;
  000F55  :  0E31;
  000F56  :  ED03;
  000F57  :  EB85;
  000F58  :  EF4E;
  000F59  :  F602;
  000F5A  :  F684;
  000F5B  :  E9E1;
  000F5C  :  E5C9;
  000F5D  :  E7A5;
  000F5E  :  0869;
  000F5F  :  1A2E;
  000F60  :  0DB4;
  000F61  :  0984;
  000F62  :  0D5B;
  000F63  :  FF81;
  000F64  :  0516;
  000F65  :  F886;
  000F66  :  0D3E;
  000F67  :  FFD4;
  000F68  :  0D0C;
  000F69  :  007A;
  000F6A  :  03F3;
  000F6B  :  E9AE;
  000F6C  :  F95C;
  000F6D  :  F5EE;
  000F6E  :  F23E;
  000F6F  :  009D;
  000F70  :  F036;
  000F71  :  0AF7;
  000F72  :  06F2;
  000F73  :  E5EB;
  000F74  :  FADF;
  000F75  :  EFE4;
  000F76  :  0AFB;
  000F77  :  0376;
  000F78  :  053F;
  000F79  :  1460;
  000F7A  :  F6C5;
  000F7B  :  FEAB;
  000F7C  :  F2A9;
  000F7D  :  FF87;
  000F7E  :  F96D;
  000F7F  :  F835;
  000F80  :  0CA3;
  000F81  :  0ECE;
  000F82  :  FDBF;
  000F83  :  D877;
  000F84  :  F568;
  000F85  :  05BE;
  000F86  :  FE35;
  000F87  :  0CB4;
  000F88  :  167B;
  000F89  :  083A;
  000F8A  :  FCE5;
  000F8B  :  F819;
  000F8C  :  F007;
  000F8D  :  EEAE;
  000F8E  :  1923;
  000F8F  :  FB88;
  000F90  :  FCD5;
  000F91  :  0E25;
  000F92  :  00AD;
  000F93  :  FC2D;
  000F94  :  1179;
  000F95  :  EE81;
  000F96  :  FB6E;
  000F97  :  F311;
  000F98  :  EF2D;
  000F99  :  F1A9;
  000F9A  :  DFA4;
  000F9B  :  F93F;
  000F9C  :  019F;
  000F9D  :  0B08;
  000F9E  :  0157;
  000F9F  :  F695;
  000FA0  :  026C;
  000FA1  :  F8E2;
  000FA2  :  13ED;
  000FA3  :  F14E;
  000FA4  :  F451;
  000FA5  :  E658;
  000FA6  :  E92B;
  000FA7  :  F697;
  000FA8  :  0B2F;
  000FA9  :  0BDD;
  000FAA  :  FFDA;
  000FAB  :  FF67;
  000FAC  :  F4F4;
  000FAD  :  12AA;
  000FAE  :  0D87;
  000FAF  :  F008;
  000FB0  :  04F5;
  000FB1  :  F649;
  000FB2  :  F3FD;
  000FB3  :  0BB9;
  000FB4  :  1B5A;
  000FB5  :  0D2B;
  000FB6  :  0B44;
  000FB7  :  E85B;
  000FB8  :  EF76;
  000FB9  :  FF64;
  000FBA  :  01F2;
  000FBB  :  194E;
  000FBC  :  12CE;
  000FBD  :  FF15;
  000FBE  :  FEC2;
  000FBF  :  1220;
  000FC0  :  0CBB;
  000FC1  :  F71D;
  000FC2  :  01AF;
  000FC3  :  063B;
  000FC4  :  11BA;
  000FC5  :  02A2;
  000FC6  :  F8DA;
  000FC7  :  F3ED;
  000FC8  :  EE81;
  000FC9  :  09F0;
  000FCA  :  F457;
  000FCB  :  FB52;
  000FCC  :  FF6F;
  000FCD  :  EA6F;
  000FCE  :  1B83;
  000FCF  :  177D;
  000FD0  :  05E8;
  000FD1  :  090D;
  000FD2  :  F4E9;
  000FD3  :  0C87;
  000FD4  :  0D12;
  000FD5  :  1022;
  000FD6  :  F08B;
  000FD7  :  0A86;
  000FD8  :  FE34;
  000FD9  :  EA0F;
  000FDA  :  0655;
  000FDB  :  F1E8;
  000FDC  :  0589;
  000FDD  :  E9A5;
  000FDE  :  0947;
  000FDF  :  014C;
  000FE0  :  FE3D;
  000FE1  :  009A;
  000FE2  :  F2C8;
  000FE3  :  10B8;
  000FE4  :  0B5C;
  000FE5  :  0D86;
  000FE6  :  F8FC;
  000FE7  :  EAE8;
  000FE8  :  E95B;
  000FE9  :  EB51;
  000FEA  :  0CBE;
  000FEB  :  FD8B;
  000FEC  :  EE5C;
  000FED  :  11D3;
  000FEE  :  0D79;
  000FEF  :  08A5;
  000FF0  :  E785;
  000FF1  :  E930;
  000FF2  :  F8F2;
  000FF3  :  FDA6;
  000FF4  :  16D0;
  000FF5  :  08C3;
  000FF6  :  DD25;
  000FF7  :  F2E7;
  000FF8  :  E421;
  000FF9  :  F964;
  000FFA  :  0374;
  000FFB  :  EF54;
  000FFC  :  F74E;
  000FFD  :  E193;
  000FFE  :  03EE;
  000FFF  :  11AF;
  001000  :  0AEF;
  001001  :  F252;
  001002  :  FE67;
  001003  :  17FB;
  001004  :  07A4;
  001005  :  FDB3;
  001006  :  034F;
  001007  :  FA0E;
  001008  :  F43F;
  001009  :  0191;
  00100A  :  0EAF;
  00100B  :  0B9E;
  00100C  :  EF81;
  00100D  :  0328;
  00100E  :  1E58;
  00100F  :  FCA1;
  001010  :  000C;
  001011  :  FF3F;
  001012  :  0B2D;
  001013  :  F41C;
  001014  :  01D6;
  001015  :  0A9E;
  001016  :  0DD1;
  001017  :  08E8;
  001018  :  1D52;
  001019  :  036C;
  00101A  :  FEDC;
  00101B  :  0E09;
  00101C  :  029F;
  00101D  :  1174;
  00101E  :  0411;
  00101F  :  E8B0;
  001020  :  FE62;
  001021  :  ED9A;
  001022  :  EDE0;
  001023  :  EC0C;
  001024  :  12E3;
  001025  :  FE9E;
  001026  :  FBD1;
  001027  :  FEEB;
  001028  :  F8B6;
  001029  :  11CA;
  00102A  :  006F;
  00102B  :  02BE;
  00102C  :  E3C7;
  00102D  :  F100;
  00102E  :  DAB7;
  00102F  :  FE95;
  001030  :  EB8E;
  001031  :  DE28;
  001032  :  FB8C;
  001033  :  F6F5;
  001034  :  178F;
  001035  :  F35D;
  001036  :  04E0;
  001037  :  0207;
  001038  :  E600;
  001039  :  EC64;
  00103A  :  0572;
  00103B  :  FEDB;
  00103C  :  0D16;
  00103D  :  12D0;
  00103E  :  0477;
  00103F  :  EF44;
  001040  :  FFB8;
  001041  :  0871;
  001042  :  1B1F;
  001043  :  F5E5;
  001044  :  F22F;
  001045  :  E63C;
  001046  :  FBD9;
  001047  :  EDD2;
  001048  :  0980;
  001049  :  0746;
  00104A  :  DCF1;
  00104B  :  06DC;
  00104C  :  0C27;
  00104D  :  FB70;
  00104E  :  EB32;
  00104F  :  DC88;
  001050  :  E43C;
  001051  :  0A7A;
  001052  :  1A5A;
  001053  :  0C07;
  001054  :  06A6;
  001055  :  DDD1;
  001056  :  045C;
  001057  :  F603;
  001058  :  E42E;
  001059  :  FF69;
  00105A  :  F97B;
  00105B  :  FA88;
  00105C  :  F34A;
  00105D  :  0F79;
  00105E  :  E6EF;
  00105F  :  F829;
  001060  :  1D93;
  001061  :  F22D;
  001062  :  FE60;
  001063  :  F738;
  001064  :  E852;
  001065  :  0B3B;
  001066  :  FC39;
  001067  :  1116;
  001068  :  0DF3;
  001069  :  1344;
  00106A  :  007D;
  00106B  :  E88D;
  00106C  :  E7FD;
  00106D  :  0D99;
  00106E  :  FC7F;
  00106F  :  EE24;
  001070  :  0B1F;
  001071  :  05EF;
  001072  :  F9D4;
  001073  :  072A;
  001074  :  0671;
  001075  :  0523;
  001076  :  EE9C;
  001077  :  FEF0;
  001078  :  F61B;
  001079  :  F6E1;
  00107A  :  D9A1;
  00107B  :  FA7D;
  00107C  :  093B;
  00107D  :  EE05;
  00107E  :  F660;
  00107F  :  F530;
  001080  :  04B7;
  001081  :  0718;
  001082  :  0235;
  001083  :  F1FB;
  001084  :  FF10;
  001085  :  DFB6;
  001086  :  F93F;
  001087  :  DDA6;
  001088  :  09E5;
  001089  :  EFE7;
  00108A  :  17FD;
  00108B  :  15A7;
  00108C  :  00B1;
  00108D  :  F03D;
  00108E  :  EBA9;
  00108F  :  1ED8;
  001090  :  07B4;
  001091  :  EFFE;
  001092  :  1D14;
  001093  :  EC6A;
  001094  :  E82B;
  001095  :  0A49;
  001096  :  03B5;
  001097  :  1A76;
  001098  :  EF3C;
  001099  :  EDD1;
  00109A  :  FE63;
  00109B  :  F1B9;
  00109C  :  FE3E;
  00109D  :  F84B;
  00109E  :  0906;
  00109F  :  F139;
  0010A0  :  0341;
  0010A1  :  0B75;
  0010A2  :  101E;
  0010A3  :  DD4E;
  0010A4  :  F6AA;
  0010A5  :  0047;
  0010A6  :  089E;
  0010A7  :  DE27;
  0010A8  :  F2CC;
  0010A9  :  DA64;
  0010AA  :  0F34;
  0010AB  :  0EE4;
  0010AC  :  EAC3;
  0010AD  :  F288;
  0010AE  :  099E;
  0010AF  :  09DB;
  0010B0  :  E4C4;
  0010B1  :  074D;
  0010B2  :  FC57;
  0010B3  :  0620;
  0010B4  :  F4D2;
  0010B5  :  FAA1;
  0010B6  :  0D4E;
  0010B7  :  F3DF;
  0010B8  :  DEA3;
  0010B9  :  F1EE;
  0010BA  :  EAAB;
  0010BB  :  EBC6;
  0010BC  :  F223;
  0010BD  :  FA42;
  0010BE  :  1379;
  0010BF  :  E42F;
  0010C0  :  0B7D;
  0010C1  :  0E88;
  0010C2  :  F5B2;
  0010C3  :  0BF9;
  0010C4  :  FDBD;
  0010C5  :  F505;
  0010C6  :  FAE2;
  0010C7  :  1458;
  0010C8  :  F1A9;
  0010C9  :  116E;
  0010CA  :  0DA9;
  0010CB  :  F3AA;
  0010CC  :  F495;
  0010CD  :  0811;
  0010CE  :  01BF;
  0010CF  :  EE82;
  0010D0  :  124E;
  0010D1  :  02B9;
  0010D2  :  EE47;
  0010D3  :  0EAA;
  0010D4  :  FAED;
  0010D5  :  1364;
  0010D6  :  19AE;
  0010D7  :  E292;
  0010D8  :  F214;
  0010D9  :  1B1A;
  0010DA  :  E210;
  0010DB  :  1002;
  0010DC  :  1A42;
  0010DD  :  F73A;
  0010DE  :  0374;
  0010DF  :  0C8B;
  0010E0  :  FE6D;
  0010E1  :  FF2A;
  0010E2  :  EBB0;
  0010E3  :  043C;
  0010E4  :  0B98;
  0010E5  :  0EF4;
  0010E6  :  DCB7;
  0010E7  :  DC0C;
  0010E8  :  08B8;
  0010E9  :  FFCE;
  0010EA  :  ECF9;
  0010EB  :  E004;
  0010EC  :  0228;
  0010ED  :  0C48;
  0010EE  :  D680;
  0010EF  :  E395;
  0010F0  :  E59F;
  0010F1  :  E132;
  0010F2  :  FC00;
  0010F3  :  03B3;
  0010F4  :  F9DC;
  0010F5  :  F0B1;
  0010F6  :  106E;
  0010F7  :  0EA4;
  0010F8  :  FB3A;
  0010F9  :  FF8A;
  0010FA  :  07DC;
  0010FB  :  06EA;
  0010FC  :  0274;
  0010FD  :  FB5E;
  0010FE  :  07B0;
  0010FF  :  FF8C;
  001100  :  17D6;
  001101  :  153B;
  001102  :  F7F8;
  001103  :  E998;
  001104  :  FC42;
  001105  :  14E0;
  001106  :  12D2;
  001107  :  F977;
  001108  :  0B67;
  001109  :  02FF;
  00110A  :  1A56;
  00110B  :  F7AB;
  00110C  :  0977;
  00110D  :  E863;
  00110E  :  0C31;
  00110F  :  E918;
  001110  :  DEB1;
  001111  :  01CB;
  001112  :  15BC;
  001113  :  08CA;
  001114  :  E7A0;
  001115  :  E2A5;
  001116  :  E3A2;
  001117  :  020F;
  001118  :  EDB1;
  001119  :  14DB;
  00111A  :  05AD;
  00111B  :  108F;
  00111C  :  0D9A;
  00111D  :  0307;
  00111E  :  F85C;
  00111F  :  FC84;
  001120  :  EEF4;
  001121  :  082A;
  001122  :  FCA4;
  001123  :  FCC5;
  001124  :  010A;
  001125  :  E43F;
  001126  :  05CB;
  001127  :  1301;
  001128  :  06F8;
  001129  :  0138;
  00112A  :  E5B0;
  00112B  :  F709;
  00112C  :  ED12;
  00112D  :  1019;
  00112E  :  0ED6;
  00112F  :  ED55;
  001130  :  F863;
  001131  :  E5EC;
  001132  :  E4C1;
  001133  :  1946;
  001134  :  DF9A;
  001135  :  06D7;
  001136  :  107B;
  001137  :  FA21;
  001138  :  EADB;
  001139  :  0ADB;
  00113A  :  03BB;
  00113B  :  FDCB;
  00113C  :  E703;
  00113D  :  061E;
  00113E  :  F7C4;
  00113F  :  F63D;
  001140  :  E7E0;
  001141  :  F4C6;
  001142  :  09DA;
  001143  :  0406;
  001144  :  FDAD;
  001145  :  F442;
  001146  :  0C1C;
  001147  :  F43D;
  001148  :  F448;
  001149  :  F081;
  00114A  :  07FE;
  00114B  :  DB28;
  00114C  :  DC28;
  00114D  :  F02D;
  00114E  :  EDBB;
  00114F  :  1640;
  001150  :  FFF8;
  001151  :  FD32;
  001152  :  F573;
  001153  :  0EE2;
  001154  :  08BE;
  001155  :  E9CA;
  001156  :  0A34;
  001157  :  0E6E;
  001158  :  E3D4;
  001159  :  103F;
  00115A  :  E796;
  00115B  :  0847;
  00115C  :  F5C2;
  00115D  :  F537;
  00115E  :  FBB1;
  00115F  :  FA71;
  001160  :  0CC6;
  001161  :  F5C8;
  001162  :  F6A4;
  001163  :  0942;
  001164  :  0938;
  001165  :  0E69;
  001166  :  F6EC;
  001167  :  04F2;
  001168  :  F7A1;
  001169  :  0883;
  00116A  :  0A3F;
  00116B  :  E8C7;
  00116C  :  FB8F;
  00116D  :  0B3E;
  00116E  :  06A4;
  00116F  :  0EFC;
  001170  :  F605;
  001171  :  F223;
  001172  :  02C6;
  001173  :  05B7;
  001174  :  F953;
  001175  :  FDC1;
  001176  :  0CB1;
  001177  :  0136;
  001178  :  016E;
  001179  :  06D0;
  00117A  :  06FA;
  00117B  :  E85F;
  00117C  :  F00F;
  00117D  :  EC3E;
  00117E  :  F049;
  00117F  :  088A;
  001180  :  1280;
  001181  :  EF62;
  001182  :  F3CC;
  001183  :  0D12;
  001184  :  03E2;
  001185  :  EE54;
  001186  :  FF73;
  001187  :  FC8D;
  001188  :  FCA2;
  001189  :  F352;
  00118A  :  1120;
  00118B  :  FDAB;
  00118C  :  0BD6;
  00118D  :  F6C3;
  00118E  :  1922;
  00118F  :  F19B;
  001190  :  F6DC;
  001191  :  0030;
  001192  :  EFC7;
  001193  :  ED91;
  001194  :  02B0;
  001195  :  F5F9;
  001196  :  FF7B;
  001197  :  0E59;
  001198  :  F5AB;
  001199  :  003B;
  00119A  :  FA78;
  00119B  :  1A8B;
  00119C  :  0965;
  00119D  :  034B;
  00119E  :  0A86;
  00119F  :  077A;
  0011A0  :  01A3;
  0011A1  :  E6BB;
  0011A2  :  05EA;
  0011A3  :  0ABB;
  0011A4  :  1649;
  0011A5  :  E95A;
  0011A6  :  0406;
  0011A7  :  0ABD;
  0011A8  :  E765;
  0011A9  :  FADD;
  0011AA  :  F1B6;
  0011AB  :  11DF;
  0011AC  :  06D4;
  0011AD  :  072C;
  0011AE  :  E4DC;
  0011AF  :  E403;
  0011B0  :  DF1E;
  0011B1  :  0588;
  0011B2  :  1073;
  0011B3  :  E410;
  0011B4  :  EFAE;
  0011B5  :  FA6D;
  0011B6  :  F604;
  0011B7  :  0850;
  0011B8  :  0B6F;
  0011B9  :  FB84;
  0011BA  :  0C13;
  0011BB  :  07E1;
  0011BC  :  F6BD;
  0011BD  :  FFE3;
  0011BE  :  F4DC;
  0011BF  :  059C;
  0011C0  :  07C5;
  0011C1  :  092B;
  0011C2  :  F7CC;
  0011C3  :  0882;
  0011C4  :  01C0;
  0011C5  :  F708;
  0011C6  :  F088;
  0011C7  :  1A13;
  0011C8  :  1F12;
  0011C9  :  0F00;
  0011CA  :  054F;
  0011CB  :  03F2;
  0011CC  :  E842;
  0011CD  :  F4A8;
  0011CE  :  10A0;
  0011CF  :  0689;
  0011D0  :  F97F;
  0011D1  :  10CD;
  0011D2  :  0265;
  0011D3  :  EFF2;
  0011D4  :  08CE;
  0011D5  :  0578;
  0011D6  :  F045;
  0011D7  :  F516;
  0011D8  :  118D;
  0011D9  :  0849;
  0011DA  :  0581;
  0011DB  :  E992;
  0011DC  :  E88B;
  0011DD  :  FF9D;
  0011DE  :  03A8;
  0011DF  :  15A6;
  0011E0  :  E3AD;
  0011E1  :  0994;
  0011E2  :  F4A8;
  0011E3  :  FD5F;
  0011E4  :  E710;
  0011E5  :  F625;
  0011E6  :  098A;
  0011E7  :  EC61;
  0011E8  :  DA44;
  0011E9  :  EA48;
  0011EA  :  EB2F;
  0011EB  :  02C9;
  0011EC  :  ECAB;
  0011ED  :  1370;
  0011EE  :  EE4E;
  0011EF  :  FF08;
  0011F0  :  FF88;
  0011F1  :  1245;
  0011F2  :  103E;
  0011F3  :  FD09;
  0011F4  :  06E3;
  0011F5  :  0E72;
  0011F6  :  07CA;
  0011F7  :  07B1;
  0011F8  :  FD76;
  0011F9  :  0D75;
  0011FA  :  EB24;
  0011FB  :  06EB;
  0011FC  :  F1A4;
  0011FD  :  F22F;
  0011FE  :  1FDD;
  0011FF  :  F337;
  001200  :  07D4;
  001201  :  0A25;
  001202  :  0B0C;
  001203  :  FCD6;
  001204  :  175C;
  001205  :  06A7;
  001206  :  D6CA;
  001207  :  F032;
  001208  :  FB8B;
  001209  :  FFC6;
  00120A  :  0BAE;
  00120B  :  FB62;
  00120C  :  01B9;
  00120D  :  0357;
  00120E  :  F86A;
  00120F  :  0AD8;
  001210  :  F3D6;
  001211  :  06CA;
  001212  :  0CAE;
  001213  :  04F7;
  001214  :  E17A;
  001215  :  F7D6;
  001216  :  F6B3;
  001217  :  0EDF;
  001218  :  EF6D;
  001219  :  EC2F;
  00121A  :  0CE2;
  00121B  :  0803;
  00121C  :  EF56;
  00121D  :  022D;
  00121E  :  FFAE;
  00121F  :  FBAC;
  001220  :  0389;
  001221  :  040E;
  001222  :  0439;
  001223  :  F6A7;
  001224  :  F080;
  001225  :  0363;
  001226  :  12B2;
  001227  :  104F;
  001228  :  1C84;
  001229  :  0493;
  00122A  :  0646;
  00122B  :  FA7F;
  00122C  :  F2CA;
  00122D  :  05F6;
  00122E  :  0B70;
  00122F  :  FE6B;
  001230  :  EF31;
  001231  :  0397;
  001232  :  064C;
  001233  :  FF41;
  001234  :  FDFC;
  001235  :  0A5A;
  001236  :  0555;
  001237  :  F6A6;
  001238  :  11BB;
  001239  :  1540;
  00123A  :  E889;
  00123B  :  0CA2;
  00123C  :  F911;
  00123D  :  E875;
  00123E  :  DE24;
  00123F  :  F561;
  001240  :  FE06;
  001241  :  F8BD;
  001242  :  0369;
  001243  :  F351;
  001244  :  0332;
  001245  :  EF5E;
  001246  :  06C5;
  001247  :  01AB;
  001248  :  F04B;
  001249  :  1BB9;
  00124A  :  0316;
  00124B  :  FBDB;
  00124C  :  0619;
  00124D  :  FA8B;
  00124E  :  EF74;
  00124F  :  0AC0;
  001250  :  DBFF;
  001251  :  F3D5;
  001252  :  0BDC;
  001253  :  055D;
  001254  :  03B8;
  001255  :  F923;
  001256  :  0E82;
  001257  :  0856;
  001258  :  05A9;
  001259  :  0056;
  00125A  :  F3DF;
  00125B  :  09F9;
  00125C  :  F1BE;
  00125D  :  EC8F;
  00125E  :  EE9A;
  00125F  :  0300;
  001260  :  FA5E;
  001261  :  11FE;
  001262  :  171C;
  001263  :  074F;
  001264  :  D5A2;
  001265  :  05F1;
  001266  :  0369;
  001267  :  F90C;
  001268  :  EB5D;
  001269  :  F2ED;
  00126A  :  DDF2;
  00126B  :  09A0;
  00126C  :  10BC;
  00126D  :  FE2B;
  00126E  :  F3DA;
  00126F  :  FD01;
  001270  :  0911;
  001271  :  E44E;
  001272  :  FA0D;
  001273  :  057E;
  001274  :  0782;
  001275  :  EA22;
  001276  :  EC2F;
  001277  :  F010;
  001278  :  FF1B;
  001279  :  FCB9;
  00127A  :  0BEE;
  00127B  :  EB0E;
  00127C  :  0BB8;
  00127D  :  0668;
  00127E  :  EEC1;
  00127F  :  FF59;
  001280  :  0BBD;
  001281  :  FE62;
  001282  :  FB72;
  001283  :  F310;
  001284  :  EA79;
  001285  :  02AD;
  001286  :  F579;
  001287  :  F8CC;
  001288  :  05A9;
  001289  :  F652;
  00128A  :  FD5A;
  00128B  :  F86C;
  00128C  :  F0EF;
  00128D  :  DE5C;
  00128E  :  0CE4;
  00128F  :  F181;
  001290  :  16E0;
  001291  :  F7D6;
  001292  :  1353;
  001293  :  DE79;
  001294  :  2054;
  001295  :  084A;
  001296  :  073E;
  001297  :  0A15;
  001298  :  1340;
  001299  :  F490;
  00129A  :  F036;
  00129B  :  FD3D;
  00129C  :  0F11;
  00129D  :  F90B;
  00129E  :  FD09;
  00129F  :  F64C;
  0012A0  :  F008;
  0012A1  :  FCC7;
  0012A2  :  F97B;
  0012A3  :  1353;
  0012A4  :  FCC7;
  0012A5  :  11F0;
  0012A6  :  FF87;
  0012A7  :  FEED;
  0012A8  :  0DA0;
  0012A9  :  1C00;
  0012AA  :  FB9D;
  0012AB  :  E097;
  0012AC  :  E2A3;
  0012AD  :  E728;
  0012AE  :  F93C;
  0012AF  :  07B8;
  0012B0  :  06B2;
  0012B1  :  F00B;
  0012B2  :  0687;
  0012B3  :  F25C;
  0012B4  :  FF51;
  0012B5  :  FF1C;
  0012B6  :  EB3F;
  0012B7  :  EAE7;
  0012B8  :  06FC;
  0012B9  :  163A;
  0012BA  :  EB3B;
  0012BB  :  F566;
  0012BC  :  F52B;
  0012BD  :  04B0;
  0012BE  :  F5F1;
  0012BF  :  FC21;
  0012C0  :  1065;
  0012C1  :  069D;
  0012C2  :  F44E;
  0012C3  :  F959;
  0012C4  :  FC8D;
  0012C5  :  F77C;
  0012C6  :  E8D2;
  0012C7  :  0A25;
  0012C8  :  D99A;
  0012C9  :  FF31;
  0012CA  :  0265;
  0012CB  :  F62D;
  0012CC  :  F881;
  0012CD  :  FC36;
  0012CE  :  DB04;
  0012CF  :  1AFD;
  0012D0  :  FEB5;
  0012D1  :  EE3F;
  0012D2  :  F1DF;
  0012D3  :  19F7;
  0012D4  :  0B37;
  0012D5  :  EE09;
  0012D6  :  F7CD;
  0012D7  :  F3D1;
  0012D8  :  FCC9;
  0012D9  :  F7BD;
  0012DA  :  0DBE;
  0012DB  :  F1D5;
  0012DC  :  0691;
  0012DD  :  E07B;
  0012DE  :  D9EC;
  0012DF  :  F5CB;
  0012E0  :  F82B;
  0012E1  :  08E9;
  0012E2  :  0FFD;
  0012E3  :  DE71;
  0012E4  :  F524;
  0012E5  :  0675;
  0012E6  :  F5C3;
  0012E7  :  EEA4;
  0012E8  :  1830;
  0012E9  :  0F57;
  0012EA  :  F996;
  0012EB  :  ED34;
  0012EC  :  E0B1;
  0012ED  :  030F;
  0012EE  :  FB33;
  0012EF  :  DC99;
  0012F0  :  DEF4;
  0012F1  :  DC73;
  0012F2  :  F2F0;
  0012F3  :  FB00;
  0012F4  :  0C7D;
  0012F5  :  F8D5;
  0012F6  :  2282;
  0012F7  :  0320;
  0012F8  :  E899;
  0012F9  :  E963;
  0012FA  :  FFBF;
  0012FB  :  0B77;
  0012FC  :  0E72;
  0012FD  :  F505;
  0012FE  :  2501;
  0012FF  :  0A77;
  001300  :  13DF;
  001301  :  0DC6;
  001302  :  FCEA;
  001303  :  08E2;
  001304  :  E778;
  001305  :  E1BB;
  001306  :  068F;
  001307  :  0657;
  001308  :  FD1C;
  001309  :  095F;
  00130A  :  1A07;
  00130B  :  03E9;
  00130C  :  065E;
  00130D  :  FAC8;
  00130E  :  1869;
  00130F  :  FE79;
  001310  :  FE93;
  001311  :  E96C;
  001312  :  EED1;
  001313  :  E534;
  001314  :  0CDC;
  001315  :  E1A6;
  001316  :  FEAD;
  001317  :  1144;
  001318  :  084F;
  001319  :  07BB;
  00131A  :  FDD6;
  00131B  :  0A77;
  00131C  :  E761;
  00131D  :  01F5;
  00131E  :  F8A2;
  00131F  :  0224;
  001320  :  0AC5;
  001321  :  028E;
  001322  :  0D0B;
  001323  :  0C95;
  001324  :  F450;
  001325  :  0849;
  001326  :  0AF6;
  001327  :  FBBB;
  001328  :  017C;
  001329  :  0C6D;
  00132A  :  EE49;
  00132B  :  0BFD;
  00132C  :  F126;
  00132D  :  F2FB;
  00132E  :  0655;
  00132F  :  F5BF;
  001330  :  DB60;
  001331  :  F074;
  001332  :  107E;
  001333  :  1CCF;
  001334  :  0D2D;
  001335  :  13C2;
  001336  :  F329;
  001337  :  EDE0;
  001338  :  FB94;
  001339  :  1F53;
  00133A  :  0832;
  00133B  :  F95A;
  00133C  :  083A;
  00133D  :  028E;
  00133E  :  EEF9;
  00133F  :  EE34;
  001340  :  0D91;
  001341  :  11F7;
  001342  :  F644;
  001343  :  EBF0;
  001344  :  0C72;
  001345  :  E32E;
  001346  :  F787;
  001347  :  F6E3;
  001348  :  07C5;
  001349  :  E490;
  00134A  :  07CD;
  00134B  :  1911;
  00134C  :  0E84;
  00134D  :  F49D;
  00134E  :  F7EC;
  00134F  :  F44C;
  001350  :  E2DC;
  001351  :  E799;
  001352  :  01D1;
  001353  :  06D5;
  001354  :  16EE;
  001355  :  E476;
  001356  :  1262;
  001357  :  00D4;
  001358  :  13C9;
  001359  :  E5FD;
  00135A  :  E37C;
  00135B  :  E831;
  00135C  :  02DC;
  00135D  :  1C01;
  00135E  :  098E;
  00135F  :  F2ED;
  001360  :  0B3F;
  001361  :  EAAD;
  001362  :  EF35;
  001363  :  0625;
  001364  :  0229;
  001365  :  08E1;
  001366  :  E56F;
  001367  :  EE18;
  001368  :  0C81;
  001369  :  E886;
  00136A  :  FA36;
  00136B  :  FD5A;
  00136C  :  00A1;
  00136D  :  1D21;
  00136E  :  FFBA;
  00136F  :  2030;
  001370  :  F576;
  001371  :  0727;
  001372  :  ECD0;
  001373  :  F02B;
  001374  :  07A6;
  001375  :  0D9E;
  001376  :  03B9;
  001377  :  0510;
  001378  :  FAE0;
  001379  :  E33A;
  00137A  :  0063;
  00137B  :  00AB;
  00137C  :  F54D;
  00137D  :  0D01;
  00137E  :  F1BF;
  00137F  :  F44F;
  001380  :  F695;
  001381  :  0311;
  001382  :  0287;
  001383  :  DC27;
  001384  :  096A;
  001385  :  DA2D;
  001386  :  E28B;
  001387  :  0182;
  001388  :  07AF;
  001389  :  F1E4;
  00138A  :  E9CD;
  00138B  :  ED2D;
  00138C  :  F8AF;
  00138D  :  F7B4;
  00138E  :  078B;
  00138F  :  E7D5;
  001390  :  F007;
  001391  :  20AD;
  001392  :  1389;
  001393  :  FF8D;
  001394  :  0E21;
  001395  :  E0B4;
  001396  :  0176;
  001397  :  DE47;
  001398  :  FF66;
  001399  :  FA77;
  00139A  :  0107;
  00139B  :  F8A8;
  00139C  :  248C;
  00139D  :  0C80;
  00139E  :  17BA;
  00139F  :  FE54;
  0013A0  :  F3CF;
  0013A1  :  F31C;
  0013A2  :  E7CF;
  0013A3  :  FAFC;
  0013A4  :  FBEF;
  0013A5  :  D957;
  0013A6  :  F8C0;
  0013A7  :  1385;
  0013A8  :  F45B;
  0013A9  :  ECC9;
  0013AA  :  F40E;
  0013AB  :  08C8;
  0013AC  :  04FD;
  0013AD  :  0581;
  0013AE  :  0F3F;
  0013AF  :  FAC3;
  0013B0  :  FAEC;
  0013B1  :  FC0C;
  0013B2  :  F404;
  0013B3  :  0B99;
  0013B4  :  DF30;
  0013B5  :  FB2E;
  0013B6  :  E93A;
  0013B7  :  EED6;
  0013B8  :  FFAB;
  0013B9  :  E523;
  0013BA  :  0E71;
  0013BB  :  12D6;
  0013BC  :  F780;
  0013BD  :  E7C5;
  0013BE  :  02E6;
  0013BF  :  F053;
  0013C0  :  F9D4;
  0013C1  :  E65C;
  0013C2  :  F6B8;
  0013C3  :  FDF5;
  0013C4  :  F9E5;
  0013C5  :  E9DB;
  0013C6  :  0EBF;
  0013C7  :  FD5F;
  0013C8  :  F9FB;
  0013C9  :  0A37;
  0013CA  :  0EBA;
  0013CB  :  F72D;
  0013CC  :  074E;
  0013CD  :  1554;
  0013CE  :  0CA6;
  0013CF  :  044C;
  0013D0  :  E0E7;
  0013D1  :  15E4;
  0013D2  :  F037;
  0013D3  :  FACC;
  0013D4  :  FCAA;
  0013D5  :  F980;
  0013D6  :  042A;
  0013D7  :  0BE1;
  0013D8  :  F39E;
  0013D9  :  E7F0;
  0013DA  :  FAFF;
  0013DB  :  0823;
  0013DC  :  FA42;
  0013DD  :  FE7A;
  0013DE  :  0820;
  0013DF  :  01DA;
  0013E0  :  FBAE;
  0013E1  :  E351;
  0013E2  :  FB63;
  0013E3  :  0D4F;
  0013E4  :  0390;
  0013E5  :  ED0C;
  0013E6  :  EAB0;
  0013E7  :  FABC;
  0013E8  :  EACB;
  0013E9  :  179D;
  0013EA  :  15B8;
  0013EB  :  DBDC;
  0013EC  :  FD45;
  0013ED  :  1030;
  0013EE  :  F234;
  0013EF  :  F259;
  0013F0  :  EAC6;
  0013F1  :  1230;
  0013F2  :  05C9;
  0013F3  :  17D2;
  0013F4  :  11BE;
  0013F5  :  012D;
  0013F6  :  EAB3;
  0013F7  :  F5D0;
  0013F8  :  103B;
  0013F9  :  0661;
  0013FA  :  1CE8;
  0013FB  :  030F;
  0013FC  :  0323;
  0013FD  :  F3AC;
  0013FE  :  FAB2;
  0013FF  :  1300;
  001400  :  0315;
  001401  :  E794;
  001402  :  F8D6;
  001403  :  1FB3;
  001404  :  14F2;
  001405  :  EF81;
  001406  :  0A10;
  001407  :  E529;
  001408  :  0C8E;
  001409  :  FB0D;
END;